{
  "version": "1.0",
  "truncation": null,
  "padding": null,
  "added_tokens": [
    {
      "id": 0,
      "content": "<unk>",
      "single_word": false,
      "lstrip": false,
      "rstrip": false,
      "normalized": false,
      "special": true
    },
    {
      "id": 1,
      "content": "<s>",
      "single_word": false,
      "lstrip": false,
      "rstrip": false,
      "normalized": false,
      "special": true
    },
    {
      "id": 2,
      "content": "</s>",
      "single_word": false,
      "lstrip": false,
      "rstrip": false,
      "normalized": false,
      "special": true
    },
    {
      "id": 3,
      "content": "<pad>",
      "single_word": false,
      "lstrip": false,
      "rstrip": false,
      "normalized": false,
      "special": true
    },
    {
      "id": 4,
      "content": "<mask>",
      "single_word": false,
      "lstrip": false,
      "rstrip": false,
      "normalized": false,
      "special": true
    }
  ],
  "normalizer": null,
  "pre_tokenizer": {
    "type": "Whitespace"
  },
  "post_processor": null,
  "decoder": null,
  "model": {
    "type": "BPE",
    "dropout": null,
    "unk_token": "<unk>",
    "continuing_subword_prefix": null,
    "end_of_word_suffix": null,
    "fuse_unk": false,
    "byte_fallback": false,
    "ignore_merges": false,
    "vocab": {
      "<unk>": 0,
      "<s>": 1,
      "</s>": 2,
      "<pad>": 3,
      "<mask>": 4,
      " ": 5,
      "!": 6,
      "\"": 7,
      "#": 8,
      "$": 9,
      "%": 10,
      "&": 11,
      "'": 12,
      "(": 13,
      ")": 14,
      "*": 15,
      "+": 16,
      ",": 17,
      "-": 18,
      ".": 19,
      "/": 20,
      "0": 21,
      "1": 22,
      "2": 23,
      "3": 24,
      "4": 25,
      "5": 26,
      "6": 27,
      "7": 28,
      "8": 29,
      "9": 30,
      ":": 31,
      "<": 32,
      "=": 33,
      ">": 34,
      "?": 35,
      "@": 36,
      "A": 37,
      "B": 38,
      "C": 39,
      "D": 40,
      "E": 41,
      "F": 42,
      "G": 43,
      "H": 44,
      "I": 45,
      "J": 46,
      "K": 47,
      "L": 48,
      "M": 49,
      "N": 50,
      "O": 51,
      "P": 52,
      "Q": 53,
      "R": 54,
      "S": 55,
      "T": 56,
      "U": 57,
      "V": 58,
      "W": 59,
      "X": 60,
      "Y": 61,
      "Z": 62,
      "[": 63,
      "\\": 64,
      "]": 65,
      "^": 66,
      "_": 67,
      "`": 68,
      "a": 69,
      "b": 70,
      "c": 71,
      "d": 72,
      "e": 73,
      "f": 74,
      "g": 75,
      "h": 76,
      "i": 77,
      "j": 78,
      "k": 79,
      "l": 80,
      "m": 81,
      "n": 82,
      "o": 83,
      "p": 84,
      "q": 85,
      "r": 86,
      "s": 87,
      "t": 88,
      "u": 89,
      "v": 90,
      "w": 91,
      "x": 92,
      "y": 93,
      "z": 94,
      "{": 95,
      "|": 96,
      "}": 97,
      "~": 98,
      "¡": 99,
      "¢": 100,
      "£": 101,
      "¤": 102,
      "¥": 103,
      "¦": 104,
      "§": 105,
      "¨": 106,
      "©": 107,
      "ª": 108,
      "«": 109,
      "¬": 110,
      "­": 111,
      "®": 112,
      "¯": 113,
      "°": 114,
      "±": 115,
      "²": 116,
      "³": 117,
      "´": 118,
      "µ": 119,
      "¶": 120,
      "·": 121,
      "¸": 122,
      "¹": 123,
      "º": 124,
      "»": 125,
      "¼": 126,
      "½": 127,
      "¾": 128,
      "¿": 129,
      "À": 130,
      "Á": 131,
      "Â": 132,
      "Ã": 133,
      "Ä": 134,
      "Å": 135,
      "Æ": 136,
      "Ç": 137,
      "È": 138,
      "É": 139,
      "Ì": 140,
      "Í": 141,
      "Î": 142,
      "Ï": 143,
      "Ð": 144,
      "Ñ": 145,
      "Ò": 146,
      "Ó": 147,
      "Ô": 148,
      "Õ": 149,
      "Ö": 150,
      "×": 151,
      "Ø": 152,
      "Ù": 153,
      "Ú": 154,
      "Û": 155,
      "Ü": 156,
      "Ý": 157,
      "Þ": 158,
      "ß": 159,
      "à": 160,
      "á": 161,
      "â": 162,
      "ã": 163,
      "ä": 164,
      "å": 165,
      "æ": 166,
      "ç": 167,
      "è": 168,
      "é": 169,
      "ê": 170,
      "ë": 171,
      "ì": 172,
      "í": 173,
      "î": 174,
      "ï": 175,
      "ð": 176,
      "ñ": 177,
      "ò": 178,
      "ó": 179,
      "ô": 180,
      "õ": 181,
      "ö": 182,
      "÷": 183,
      "ø": 184,
      "ù": 185,
      "ú": 186,
      "û": 187,
      "ü": 188,
      "ý": 189,
      "þ": 190,
      "Ā": 191,
      "ā": 192,
      "ă": 193,
      "ć": 194,
      "Ĉ": 195,
      "Č": 196,
      "č": 197,
      "ď": 198,
      "Đ": 199,
      "đ": 200,
      "Ē": 201,
      "ē": 202,
      "ĕ": 203,
      "ė": 204,
      "ě": 205,
      "ğ": 206,
      "Ġ": 207,
      "ġ": 208,
      "Ħ": 209,
      "ħ": 210,
      "Ī": 211,
      "ī": 212,
      "ĭ": 213,
      "İ": 214,
      "ı": 215,
      "ļ": 216,
      "Ł": 217,
      "ł": 218,
      "ń": 219,
      "ň": 220,
      "ŋ": 221,
      "Ō": 222,
      "ō": 223,
      "ŏ": 224,
      "ő": 225,
      "Œ": 226,
      "œ": 227,
      "Ś": 228,
      "ś": 229,
      "Ş": 230,
      "ş": 231,
      "Š": 232,
      "š": 233,
      "Ţ": 234,
      "ţ": 235,
      "Ŧ": 236,
      "ũ": 237,
      "ū": 238,
      "ŭ": 239,
      "ů": 240,
      "Ÿ": 241,
      "Ż": 242,
      "ż": 243,
      "ž": 244,
      "ƒ": 245,
      "ơ": 246,
      "ƣ": 247,
      "ư": 248,
      "ǂ": 249,
      "ǃ": 250,
      "ǎ": 251,
      "ǐ": 252,
      "ǒ": 253,
      "ǔ": 254,
      "Ǧ": 255,
      "ǧ": 256,
      "ǫ": 257,
      "ǰ": 258,
      "Ș": 259,
      "ț": 260,
      "ȸ": 261,
      "ȹ": 262,
      "ɐ": 263,
      "ɑ": 264,
      "ɒ": 265,
      "ɓ": 266,
      "ɔ": 267,
      "ɕ": 268,
      "ɘ": 269,
      "ə": 270,
      "ɛ": 271,
      "ɜ": 272,
      "ɝ": 273,
      "ɟ": 274,
      "ɡ": 275,
      "ɣ": 276,
      "ɦ": 277,
      "ɨ": 278,
      "ɪ": 279,
      "ɫ": 280,
      "ɯ": 281,
      "ɲ": 282,
      "ɳ": 283,
      "ɴ": 284,
      "ɵ": 285,
      "ɸ": 286,
      "ɽ": 287,
      "ɾ": 288,
      "ʀ": 289,
      "ʁ": 290,
      "ʂ": 291,
      "ʃ": 292,
      "ʈ": 293,
      "ʉ": 294,
      "ʊ": 295,
      "ʋ": 296,
      "ʌ": 297,
      "ʏ": 298,
      "ʒ": 299,
      "ʔ": 300,
      "ʕ": 301,
      "ʤ": 302,
      "ʦ": 303,
      "ʰ": 304,
      "ʱ": 305,
      "ʲ": 306,
      "ʹ": 307,
      "ʻ": 308,
      "ʼ": 309,
      "ʽ": 310,
      "ʾ": 311,
      "ʿ": 312,
      "ˀ": 313,
      "ˆ": 314,
      "ˈ": 315,
      "ˌ": 316,
      "ː": 317,
      "˘": 318,
      "˚": 319,
      "ˠ": 320,
      "ˤ": 321,
      "ˮ": 322,
      "̀": 323,
      "́": 324,
      "̃": 325,
      "̄": 326,
      "̅": 327,
      "̆": 328,
      "̌": 329,
      "̍": 330,
      "̠": 331,
      "̤": 332,
      "̥": 333,
      "̩": 334,
      "̪": 335,
      "̯": 336,
      "̱": 337,
      "̵": 338,
      "̶": 339,
      "̺": 340,
      "ͅ": 341,
      "͍": 342,
      "͘": 343,
      "͡": 344,
      "ͭ": 345,
      "΄": 346,
      "Ά": 347,
      "Α": 348,
      "Β": 349,
      "Γ": 350,
      "Δ": 351,
      "Ε": 352,
      "Θ": 353,
      "Ι": 354,
      "Κ": 355,
      "Λ": 356,
      "Μ": 357,
      "Ν": 358,
      "Ο": 359,
      "Π": 360,
      "Ρ": 361,
      "Σ": 362,
      "Τ": 363,
      "Υ": 364,
      "Φ": 365,
      "Χ": 366,
      "Ω": 367,
      "ά": 368,
      "έ": 369,
      "ή": 370,
      "ί": 371,
      "α": 372,
      "β": 373,
      "γ": 374,
      "δ": 375,
      "ε": 376,
      "ζ": 377,
      "η": 378,
      "θ": 379,
      "ι": 380,
      "κ": 381,
      "λ": 382,
      "μ": 383,
      "ν": 384,
      "ξ": 385,
      "ο": 386,
      "π": 387,
      "ρ": 388,
      "ς": 389,
      "σ": 390,
      "τ": 391,
      "υ": 392,
      "φ": 393,
      "χ": 394,
      "ψ": 395,
      "ω": 396,
      "ϊ": 397,
      "ϋ": 398,
      "ό": 399,
      "ύ": 400,
      "ώ": 401,
      "ϕ": 402,
      "ϵ": 403,
      "І": 404,
      "Ј": 405,
      "А": 406,
      "Б": 407,
      "В": 408,
      "Г": 409,
      "Д": 410,
      "Е": 411,
      "Ж": 412,
      "З": 413,
      "И": 414,
      "К": 415,
      "Л": 416,
      "М": 417,
      "Н": 418,
      "О": 419,
      "П": 420,
      "Р": 421,
      "С": 422,
      "Т": 423,
      "У": 424,
      "Ф": 425,
      "Х": 426,
      "Ц": 427,
      "Ч": 428,
      "Ш": 429,
      "Ъ": 430,
      "Ы": 431,
      "Э": 432,
      "Я": 433,
      "а": 434,
      "б": 435,
      "в": 436,
      "г": 437,
      "д": 438,
      "е": 439,
      "ж": 440,
      "з": 441,
      "и": 442,
      "й": 443,
      "к": 444,
      "л": 445,
      "м": 446,
      "н": 447,
      "о": 448,
      "п": 449,
      "р": 450,
      "с": 451,
      "т": 452,
      "у": 453,
      "ф": 454,
      "х": 455,
      "ц": 456,
      "ч": 457,
      "ш": 458,
      "щ": 459,
      "ъ": 460,
      "ы": 461,
      "ь": 462,
      "э": 463,
      "ю": 464,
      "я": 465,
      "ё": 466,
      "є": 467,
      "і": 468,
      "ї": 469,
      "ј": 470,
      "њ": 471,
      "ў": 472,
      "ѡ": 473,
      "ғ": 474,
      "Қ": 475,
      "қ": 476,
      "ҡ": 477,
      "ң": 478,
      "ү": 479,
      "ҷ": 480,
      "Ӏ": 481,
      "Ә": 482,
      "ә": 483,
      "ӣ": 484,
      "ӧ": 485,
      "Ө": 486,
      "ө": 487,
      "Ա": 488,
      "Բ": 489,
      "Գ": 490,
      "Ե": 491,
      "Է": 492,
      "Կ": 493,
      "Հ": 494,
      "Ճ": 495,
      "Մ": 496,
      "Ն": 497,
      "Ո": 498,
      "Ռ": 499,
      "Վ": 500,
      "Տ": 501,
      "ա": 502,
      "բ": 503,
      "գ": 504,
      "դ": 505,
      "ե": 506,
      "զ": 507,
      "թ": 508,
      "ի": 509,
      "լ": 510,
      "խ": 511,
      "ծ": 512,
      "կ": 513,
      "հ": 514,
      "ղ": 515,
      "ճ": 516,
      "մ": 517,
      "յ": 518,
      "ն": 519,
      "շ": 520,
      "ո": 521,
      "պ": 522,
      "ջ": 523,
      "ռ": 524,
      "ս": 525,
      "վ": 526,
      "տ": 527,
      "ր": 528,
      "ց": 529,
      "ւ": 530,
      "ք": 531,
      "և": 532,
      "ְ": 533,
      "ֲ": 534,
      "ִ": 535,
      "ֵ": 536,
      "ֶ": 537,
      "ַ": 538,
      "ָ": 539,
      "ֹ": 540,
      "ּ": 541,
      "־": 542,
      "ׁ": 543,
      "ׂ": 544,
      "א": 545,
      "ב": 546,
      "ג": 547,
      "ד": 548,
      "ה": 549,
      "ו": 550,
      "ז": 551,
      "ח": 552,
      "ט": 553,
      "י": 554,
      "ך": 555,
      "כ": 556,
      "ל": 557,
      "ם": 558,
      "מ": 559,
      "ן": 560,
      "נ": 561,
      "ס": 562,
      "ע": 563,
      "ף": 564,
      "פ": 565,
      "ץ": 566,
      "צ": 567,
      "ק": 568,
      "ר": 569,
      "ש": 570,
      "ת": 571,
      "ײ": 572,
      "״": 573,
      "ء": 574,
      "آ": 575,
      "أ": 576,
      "ؤ": 577,
      "إ": 578,
      "ئ": 579,
      "ا": 580,
      "ب": 581,
      "ة": 582,
      "ت": 583,
      "ث": 584,
      "ج": 585,
      "ح": 586,
      "خ": 587,
      "د": 588,
      "ذ": 589,
      "ر": 590,
      "ز": 591,
      "س": 592,
      "ش": 593,
      "ص": 594,
      "ض": 595,
      "ط": 596,
      "ظ": 597,
      "ع": 598,
      "غ": 599,
      "ـ": 600,
      "ف": 601,
      "ق": 602,
      "ك": 603,
      "ل": 604,
      "م": 605,
      "ن": 606,
      "ه": 607,
      "و": 608,
      "ى": 609,
      "ي": 610,
      "ً": 611,
      "ٌ": 612,
      "َ": 613,
      "ُ": 614,
      "ِ": 615,
      "ّ": 616,
      "ْ": 617,
      "ٔ": 618,
      "ٱ": 619,
      "ٲ": 620,
      "ٹ": 621,
      "ټ": 622,
      "ٽ": 623,
      "پ": 624,
      "ٿ": 625,
      "ڄ": 626,
      "چ": 627,
      "ڇ": 628,
      "ڈ": 629,
      "ډ": 630,
      "ڊ": 631,
      "ڌ": 632,
      "ڑ": 633,
      "ړ": 634,
      "ڕ": 635,
      "ژ": 636,
      "ڙ": 637,
      "ښ": 638,
      "ڡ": 639,
      "ڢ": 640,
      "ک": 641,
      "ڪ": 642,
      "ګ": 643,
      "ڬ": 644,
      "گ": 645,
      "ڵ": 646,
      "ں": 647,
      "ڻ": 648,
      "ھ": 649,
      "ہ": 650,
      "ۂ": 651,
      "ۆ": 652,
      "ۇ": 653,
      "ۋ": 654,
      "ی": 655,
      "ۍ": 656,
      "ێ": 657,
      "ې": 658,
      "ے": 659,
      "ە": 660,
      "܀": 661,
      "ܐ": 662,
      "ܓ": 663,
      "ܕ": 664,
      "ܙ": 665,
      "ܚ": 666,
      "ܡ": 667,
      "ܢ": 668,
      "ܣ": 669,
      "ܪ": 670,
      "ܬ": 671,
      "ނ": 672,
      "ޅ": 673,
      "ކ": 674,
      "އ": 675,
      "މ": 676,
      "ފ": 677,
      "ލ": 678,
      "ސ": 679,
      "ޤ": 680,
      "ަ": 681,
      "ާ": 682,
      "ި": 683,
      "ީ": 684,
      "ު": 685,
      "ެ": 686,
      "ް": 687,
      "ँ": 688,
      "ं": 689,
      "ः": 690,
      "अ": 691,
      "आ": 692,
      "इ": 693,
      "ई": 694,
      "उ": 695,
      "ऊ": 696,
      "ऋ": 697,
      "ए": 698,
      "ऐ": 699,
      "ऑ": 700,
      "ओ": 701,
      "क": 702,
      "ख": 703,
      "ग": 704,
      "घ": 705,
      "ङ": 706,
      "च": 707,
      "छ": 708,
      "ज": 709,
      "झ": 710,
      "ञ": 711,
      "ट": 712,
      "ठ": 713,
      "ड": 714,
      "ढ": 715,
      "ण": 716,
      "त": 717,
      "थ": 718,
      "द": 719,
      "ध": 720,
      "न": 721,
      "प": 722,
      "फ": 723,
      "ब": 724,
      "भ": 725,
      "म": 726,
      "य": 727,
      "र": 728,
      "ल": 729,
      "ळ": 730,
      "व": 731,
      "श": 732,
      "ष": 733,
      "स": 734,
      "ह": 735,
      "़": 736,
      "ा": 737,
      "ि": 738,
      "ी": 739,
      "ु": 740,
      "ू": 741,
      "ृ": 742,
      "ॄ": 743,
      "ॅ": 744,
      "े": 745,
      "ै": 746,
      "ॉ": 747,
      "ो": 748,
      "ौ": 749,
      "्": 750,
      "।": 751,
      "॰": 752,
      "ঁ": 753,
      "ং": 754,
      "অ": 755,
      "আ": 756,
      "ই": 757,
      "উ": 758,
      "ঊ": 759,
      "এ": 760,
      "ও": 761,
      "ক": 762,
      "খ": 763,
      "গ": 764,
      "ঘ": 765,
      "ঙ": 766,
      "চ": 767,
      "ছ": 768,
      "জ": 769,
      "ঝ": 770,
      "ঞ": 771,
      "ট": 772,
      "ঠ": 773,
      "ড": 774,
      "ঢ": 775,
      "ণ": 776,
      "ত": 777,
      "থ": 778,
      "দ": 779,
      "ধ": 780,
      "ন": 781,
      "প": 782,
      "ফ": 783,
      "ব": 784,
      "ভ": 785,
      "ম": 786,
      "য": 787,
      "র": 788,
      "ল": 789,
      "শ": 790,
      "ষ": 791,
      "স": 792,
      "হ": 793,
      "়": 794,
      "া": 795,
      "ি": 796,
      "ী": 797,
      "ু": 798,
      "ূ": 799,
      "ৃ": 800,
      "ে": 801,
      "ো": 802,
      "ৌ": 803,
      "্": 804,
      "ৰ": 805,
      "ৱ": 806,
      "৳": 807,
      "ਂ": 808,
      "ਅ": 809,
      "ਆ": 810,
      "ਇ": 811,
      "ਈ": 812,
      "ਉ": 813,
      "ਏ": 814,
      "ਓ": 815,
      "ਕ": 816,
      "ਖ": 817,
      "ਗ": 818,
      "ਘ": 819,
      "ਚ": 820,
      "ਜ": 821,
      "ਝ": 822,
      "ਟ": 823,
      "ਠ": 824,
      "ਡ": 825,
      "ਣ": 826,
      "ਤ": 827,
      "ਥ": 828,
      "ਦ": 829,
      "ਧ": 830,
      "ਨ": 831,
      "ਪ": 832,
      "ਫ": 833,
      "ਬ": 834,
      "ਭ": 835,
      "ਮ": 836,
      "ਯ": 837,
      "ਰ": 838,
      "ਲ": 839,
      "ਵ": 840,
      "ਸ": 841,
      "ਹ": 842,
      "਼": 843,
      "ਾ": 844,
      "ਿ": 845,
      "ੀ": 846,
      "ੁ": 847,
      "ੂ": 848,
      "ੇ": 849,
      "ੈ": 850,
      "ੋ": 851,
      "੍": 852,
      "ੜ": 853,
      "ੰ": 854,
      "ੱ": 855,
      "ં": 856,
      "અ": 857,
      "આ": 858,
      "ઇ": 859,
      "ઉ": 860,
      "ક": 861,
      "ગ": 862,
      "ચ": 863,
      "છ": 864,
      "જ": 865,
      "ટ": 866,
      "ઠ": 867,
      "ડ": 868,
      "ઢ": 869,
      "ણ": 870,
      "ત": 871,
      "થ": 872,
      "દ": 873,
      "ધ": 874,
      "ન": 875,
      "પ": 876,
      "બ": 877,
      "ભ": 878,
      "મ": 879,
      "ય": 880,
      "ર": 881,
      "લ": 882,
      "ળ": 883,
      "વ": 884,
      "શ": 885,
      "ષ": 886,
      "સ": 887,
      "હ": 888,
      "ા": 889,
      "િ": 890,
      "ી": 891,
      "ુ": 892,
      "ૂ": 893,
      "ે": 894,
      "ૈ": 895,
      "ો": 896,
      "્": 897,
      "ଁ": 898,
      "ଆ": 899,
      "ଉ": 900,
      "ଓ": 901,
      "କ": 902,
      "ଖ": 903,
      "ଗ": 904,
      "ଛ": 905,
      "ଜ": 906,
      "ଡ": 907,
      "ଣ": 908,
      "ତ": 909,
      "ଦ": 910,
      "ଧ": 911,
      "ନ": 912,
      "ପ": 913,
      "ଫ": 914,
      "ବ": 915,
      "ମ": 916,
      "ଯ": 917,
      "ର": 918,
      "ଲ": 919,
      "ଳ": 920,
      "ଶ": 921,
      "ଷ": 922,
      "ସ": 923,
      "ହ": 924,
      "଼": 925,
      "ା": 926,
      "ି": 927,
      "ୀ": 928,
      "ୁ": 929,
      "ୋ": 930,
      "୍": 931,
      "ୟ": 932,
      "ஃ": 933,
      "அ": 934,
      "ஆ": 935,
      "இ": 936,
      "ஈ": 937,
      "உ": 938,
      "ஊ": 939,
      "எ": 940,
      "ஏ": 941,
      "ஐ": 942,
      "ஒ": 943,
      "ஓ": 944,
      "ஔ": 945,
      "க": 946,
      "ங": 947,
      "ச": 948,
      "ஜ": 949,
      "ஞ": 950,
      "ட": 951,
      "஡": 952,
      "஢": 953,
      "ண": 954,
      "த": 955,
      "஦": 956,
      "ந": 957,
      "ன": 958,
      "ப": 959,
      "ம": 960,
      "ய": 961,
      "ர": 962,
      "ற": 963,
      "ல": 964,
      "ள": 965,
      "ழ": 966,
      "வ": 967,
      "ஶ": 968,
      "ஷ": 969,
      "ஸ": 970,
      "ஹ": 971,
      "ா": 972,
      "ி": 973,
      "ீ": 974,
      "ு": 975,
      "ூ": 976,
      "ெ": 977,
      "ே": 978,
      "ை": 979,
      "ொ": 980,
      "ோ": 981,
      "ௌ": 982,
      "்": 983,
      "ௐ": 984,
      "ௗ": 985,
      "௦": 986,
      "௧": 987,
      "௨": 988,
      "௪": 989,
      "௫": 990,
      "௬": 991,
      "௲": 992,
      "௳": 993,
      "௸": 994,
      "௺": 995,
      "௾": 996,
      "ం": 997,
      "అ": 998,
      "ఆ": 999,
      "ఒ": 1000,
      "క": 1001,
      "గ": 1002,
      "చ": 1003,
      "ఛ": 1004,
      "జ": 1005,
      "ట": 1006,
      "డ": 1007,
      "ణ": 1008,
      "త": 1009,
      "థ": 1010,
      "ద": 1011,
      "ధ": 1012,
      "న": 1013,
      "ప": 1014,
      "బ": 1015,
      "భ": 1016,
      "మ": 1017,
      "య": 1018,
      "ర": 1019,
      "ల": 1020,
      "వ": 1021,
      "శ": 1022,
      "ష": 1023,
      "స": 1024,
      "హ": 1025,
      "ా": 1026,
      "ి": 1027,
      "ీ": 1028,
      "ు": 1029,
      "ూ": 1030,
      "ె": 1031,
      "ే": 1032,
      "ై": 1033,
      "ో": 1034,
      "్": 1035,
      "౦": 1036,
      "ಂ": 1037,
      "ಅ": 1038,
      "ಆ": 1039,
      "ಇ": 1040,
      "ಉ": 1041,
      "ಒ": 1042,
      "ಕ": 1043,
      "ಗ": 1044,
      "ಘ": 1045,
      "ಚ": 1046,
      "ಜ": 1047,
      "ಟ": 1048,
      "ಡ": 1049,
      "ಣ": 1050,
      "ತ": 1051,
      "ಥ": 1052,
      "ದ": 1053,
      "ಧ": 1054,
      "ನ": 1055,
      "ಪ": 1056,
      "ಫ": 1057,
      "ಬ": 1058,
      "ಭ": 1059,
      "ಮ": 1060,
      "ಯ": 1061,
      "ರ": 1062,
      "ಲ": 1063,
      "ಳ": 1064,
      "ವ": 1065,
      "ಶ": 1066,
      "ಷ": 1067,
      "ಸ": 1068,
      "ಹ": 1069,
      "ಾ": 1070,
      "ಿ": 1071,
      "ೀ": 1072,
      "ು": 1073,
      "ೂ": 1074,
      "ೃ": 1075,
      "ೆ": 1076,
      "ೇ": 1077,
      "ೊ": 1078,
      "ೋ": 1079,
      "ೌ": 1080,
      "್": 1081,
      "ം": 1082,
      "അ": 1083,
      "ആ": 1084,
      "ഇ": 1085,
      "ഉ": 1086,
      "ഊ": 1087,
      "എ": 1088,
      "ക": 1089,
      "ഗ": 1090,
      "ങ": 1091,
      "ച": 1092,
      "ജ": 1093,
      "ഞ": 1094,
      "ട": 1095,
      "ഡ": 1096,
      "ണ": 1097,
      "ത": 1098,
      "ഥ": 1099,
      "ദ": 1100,
      "ധ": 1101,
      "ന": 1102,
      "പ": 1103,
      "ഫ": 1104,
      "ബ": 1105,
      "ഭ": 1106,
      "മ": 1107,
      "യ": 1108,
      "ര": 1109,
      "റ": 1110,
      "ല": 1111,
      "ള": 1112,
      "ഴ": 1113,
      "വ": 1114,
      "ശ": 1115,
      "ഷ": 1116,
      "സ": 1117,
      "ഹ": 1118,
      "ാ": 1119,
      "ി": 1120,
      "ീ": 1121,
      "ു": 1122,
      "ൂ": 1123,
      "ൃ": 1124,
      "െ": 1125,
      "േ": 1126,
      "ൈ": 1127,
      "ൊ": 1128,
      "ോ": 1129,
      "്": 1130,
      "ൗ": 1131,
      "ൻ": 1132,
      "ർ": 1133,
      "ൽ": 1134,
      "ං": 1135,
      "අ": 1136,
      "ආ": 1137,
      "ඇ": 1138,
      "ඉ": 1139,
      "ඊ": 1140,
      "උ": 1141,
      "ඌ": 1142,
      "එ": 1143,
      "ක": 1144,
      "ග": 1145,
      "ච": 1146,
      "ජ": 1147,
      "ට": 1148,
      "ඩ": 1149,
      "ණ": 1150,
      "ත": 1151,
      "ද": 1152,
      "ධ": 1153,
      "න": 1154,
      "ඳ": 1155,
      "ප": 1156,
      "බ": 1157,
      "ම": 1158,
      "ඹ": 1159,
      "ය": 1160,
      "ර": 1161,
      "ල": 1162,
      "ව": 1163,
      "ශ": 1164,
      "ෂ": 1165,
      "ස": 1166,
      "හ": 1167,
      "ළ": 1168,
      "්": 1169,
      "ා": 1170,
      "ැ": 1171,
      "ෑ": 1172,
      "ි": 1173,
      "ී": 1174,
      "ු": 1175,
      "ෙ": 1176,
      "ේ": 1177,
      "ො": 1178,
      "ෝ": 1179,
      "ෲ": 1180,
      "ก": 1181,
      "ข": 1182,
      "ค": 1183,
      "ง": 1184,
      "จ": 1185,
      "ช": 1186,
      "ญ": 1187,
      "ฐ": 1188,
      "ฑ": 1189,
      "ณ": 1190,
      "ด": 1191,
      "ต": 1192,
      "ถ": 1193,
      "ท": 1194,
      "ธ": 1195,
      "น": 1196,
      "บ": 1197,
      "ป": 1198,
      "พ": 1199,
      "ฟ": 1200,
      "ภ": 1201,
      "ม": 1202,
      "ย": 1203,
      "ร": 1204,
      "ล": 1205,
      "ว": 1206,
      "ศ": 1207,
      "ส": 1208,
      "ห": 1209,
      "อ": 1210,
      "ะ": 1211,
      "ั": 1212,
      "า": 1213,
      "ำ": 1214,
      "ิ": 1215,
      "ี": 1216,
      "ึ": 1217,
      "ื": 1218,
      "ุ": 1219,
      "ู": 1220,
      "฿": 1221,
      "เ": 1222,
      "แ": 1223,
      "โ": 1224,
      "ไ": 1225,
      "็": 1226,
      "่": 1227,
      "้": 1228,
      "์": 1229,
      "ຄ": 1230,
      "ງ": 1231,
      "ຈ": 1232,
      "ນ": 1233,
      "ວ": 1234,
      "ັ": 1235,
      "ົ": 1236,
      "ຽ": 1237,
      "་": 1238,
      "།": 1239,
      "ག": 1240,
      "ང": 1241,
      "པ": 1242,
      "བ": 1243,
      "མ": 1244,
      "ཙ": 1245,
      "ས": 1246,
      "ེ": 1247,
      "ོ": 1248,
      "ླ": 1249,
      "က": 1250,
      "ဂ": 1251,
      "င": 1252,
      "ဇ": 1253,
      "ည": 1254,
      "တ": 1255,
      "ဓ": 1256,
      "န": 1257,
      "ပ": 1258,
      "ဘ": 1259,
      "မ": 1260,
      "ယ": 1261,
      "ရ": 1262,
      "သ": 1263,
      "ဟ": 1264,
      "အ": 1265,
      "ာ": 1266,
      "ိ": 1267,
      "ီ": 1268,
      "ု": 1269,
      "ူ": 1270,
      "ေ": 1271,
      "း": 1272,
      "္": 1273,
      "်": 1274,
      "ျ": 1275,
      "ွ": 1276,
      "ှ": 1277,
      "ა": 1278,
      "ბ": 1279,
      "ე": 1280,
      "ზ": 1281,
      "თ": 1282,
      "ი": 1283,
      "ლ": 1284,
      "ნ": 1285,
      "რ": 1286,
      "ს": 1287,
      "უ": 1288,
      "ფ": 1289,
      "ქ": 1290,
      "ჩ": 1291,
      "ჭ": 1292,
      "ᄓ": 1293,
      "ᄖ": 1294,
      "ᄗ": 1295,
      "ᄘ": 1296,
      "ᄙ": 1297,
      "ᄛ": 1298,
      "ᄟ": 1299,
      "ᄤ": 1300,
      "ᄥ": 1301,
      "ᄦ": 1302,
      "ᄨ": 1303,
      "ᄪ": 1304,
      "ᄰ": 1305,
      "ᄱ": 1306,
      "ᄳ": 1307,
      "ᄴ": 1308,
      "ᄵ": 1309,
      "ᄷ": 1310,
      "ᄸ": 1311,
      "ᄹ": 1312,
      "ᄺ": 1313,
      "ᄻ": 1314,
      "ᄼ": 1315,
      "ᄽ": 1316,
      "ᄾ": 1317,
      "ᄿ": 1318,
      "ᅁ": 1319,
      "ᅂ": 1320,
      "ᅃ": 1321,
      "ᅄ": 1322,
      "ᅅ": 1323,
      "ᅆ": 1324,
      "ᅇ": 1325,
      "ᅈ": 1326,
      "ᅉ": 1327,
      "ᅊ": 1328,
      "ᅋ": 1329,
      "ᅍ": 1330,
      "ᅎ": 1331,
      "ᅏ": 1332,
      "ᅐ": 1333,
      "ᅑ": 1334,
      "ᅒ": 1335,
      "ᅓ": 1336,
      "ᅔ": 1337,
      "ᅕ": 1338,
      "ᅖ": 1339,
      "ᇃ": 1340,
      "ᇄ": 1341,
      "ᇉ": 1342,
      "ᇋ": 1343,
      "ᇏ": 1344,
      "ᇑ": 1345,
      "ᇒ": 1346,
      "ᇔ": 1347,
      "ᇕ": 1348,
      "ᇖ": 1349,
      "ᇘ": 1350,
      "ᇚ": 1351,
      "ᇛ": 1352,
      "ᇞ": 1353,
      "ᇠ": 1354,
      "ᇡ": 1355,
      "ᇣ": 1356,
      "ᇥ": 1357,
      "ᇬ": 1358,
      "ᇭ": 1359,
      "ᇮ": 1360,
      "ᇯ": 1361,
      "ᇵ": 1362,
      "ᇶ": 1363,
      "ᇷ": 1364,
      "ᇸ": 1365,
      "ል": 1366,
      "መ": 1367,
      "ማ": 1368,
      "ም": 1369,
      "ሪ": 1370,
      "ራ": 1371,
      "ር": 1372,
      "ሰ": 1373,
      "ሳ": 1374,
      "ስ": 1375,
      "ቅ": 1376,
      "ባ": 1377,
      "ተ": 1378,
      "ት": 1379,
      "ን": 1380,
      "አ": 1381,
      "ኣ": 1382,
      "ዕ": 1383,
      "ያ": 1384,
      "ዮ": 1385,
      "ዱ": 1386,
      "ድ": 1387,
      "ግ": 1388,
      "ፅ": 1389,
      "ᑖ": 1390,
      "ᑦ": 1391,
      "ᑭ": 1392,
      "ᒃ": 1393,
      "ᓄ": 1394,
      "ᓇ": 1395,
      "ᓗ": 1396,
      "ᕗ": 1397,
      "ᕿ": 1398,
      "ᖅ": 1399,
      "ក": 1400,
      "ខ": 1401,
      "គ": 1402,
      "ង": 1403,
      "ច": 1404,
      "ជ": 1405,
      "ញ": 1406,
      "ដ": 1407,
      "ត": 1408,
      "ទ": 1409,
      "ន": 1410,
      "ប": 1411,
      "ព": 1412,
      "ភ": 1413,
      "ម": 1414,
      "រ": 1415,
      "ល": 1416,
      "វ": 1417,
      "ស": 1418,
      "ហ": 1419,
      "អ": 1420,
      "ា": 1421,
      "ិ": 1422,
      "ី": 1423,
      "ុ": 1424,
      "ៀ": 1425,
      "េ": 1426,
      "ែ": 1427,
      "ៃ": 1428,
      "ោ": 1429,
      "ៅ": 1430,
      "ំ": 1431,
      "ះ": 1432,
      "់": 1433,
      "្": 1434,
      "᠎": 1435,
      "ᠠ": 1436,
      "ᠡ": 1437,
      "ᠥ": 1438,
      "ᠨ": 1439,
      "ᠩ": 1440,
      "ᠬ": 1441,
      "ᠭ": 1442,
      "ᠮ": 1443,
      "ᱛ": 1444,
      "ᱟ": 1445,
      "ᱡ": 1446,
      "ᱢ": 1447,
      "ᱤ": 1448,
      "ᱥ": 1449,
      "ᱦ": 1450,
      "ᱨ": 1451,
      "ᱩ": 1452,
      "ᱭ": 1453,
      "ᱮ": 1454,
      "ᱰ": 1455,
      "ᱱ": 1456,
      "ᱵ": 1457,
      "ᱸ": 1458,
      "ᱹ": 1459,
      "ᵻ": 1460,
      "ḇ": 1461,
      "ḍ": 1462,
      "ḏ": 1463,
      "ḗ": 1464,
      "ḡ": 1465,
      "Ḥ": 1466,
      "ḥ": 1467,
      "Ḩ": 1468,
      "Ḫ": 1469,
      "ḵ": 1470,
      "ṃ": 1471,
      "ṅ": 1472,
      "ṇ": 1473,
      "ṓ": 1474,
      "ṙ": 1475,
      "ṛ": 1476,
      "ṟ": 1477,
      "Ṣ": 1478,
      "ṣ": 1479,
      "Ṭ": 1480,
      "ṭ": 1481,
      "ṯ": 1482,
      "Ẓ": 1483,
      "ẓ": 1484,
      "ẕ": 1485,
      "ạ": 1486,
      "ả": 1487,
      "ấ": 1488,
      "ầ": 1489,
      "ẫ": 1490,
      "ậ": 1491,
      "ắ": 1492,
      "ẹ": 1493,
      "ẻ": 1494,
      "ẽ": 1495,
      "ế": 1496,
      "ề": 1497,
      "ể": 1498,
      "ễ": 1499,
      "ệ": 1500,
      "ỉ": 1501,
      "ị": 1502,
      "ọ": 1503,
      "ố": 1504,
      "ồ": 1505,
      "ổ": 1506,
      "ộ": 1507,
      "ớ": 1508,
      "ờ": 1509,
      "ở": 1510,
      "ỡ": 1511,
      "ợ": 1512,
      "ụ": 1513,
      "ứ": 1514,
      "ử": 1515,
      "ự": 1516,
      "ỵ": 1517,
      "ỹ": 1518,
      "ἀ": 1519,
      "ἁ": 1520,
      "ἄ": 1521,
      "ἅ": 1522,
      "Ἀ": 1523,
      "Ἁ": 1524,
      "Ἄ": 1525,
      "ἐ": 1526,
      "ἔ": 1527,
      "Ἐ": 1528,
      "Ἕ": 1529,
      "ἡ": 1530,
      "ἤ": 1531,
      "ἰ": 1532,
      "ἱ": 1533,
      "ἴ": 1534,
      "ἵ": 1535,
      "ἶ": 1536,
      "Ἰ": 1537,
      "Ἱ": 1538,
      "Ἴ": 1539,
      "ὀ": 1540,
      "ὁ": 1541,
      "ὄ": 1542,
      "ὅ": 1543,
      "Ὄ": 1544,
      "ὐ": 1545,
      "ὑ": 1546,
      "ὤ": 1547,
      "ὦ": 1548,
      "ὰ": 1549,
      "ὴ": 1550,
      "ὶ": 1551,
      "ᾍ": 1552,
      "ᾶ": 1553,
      "ῃ": 1554,
      "ῆ": 1555,
      "ῖ": 1556,
      "ῥ": 1557,
      "ῦ": 1558,
      "ῳ": 1559,
      "ῶ": 1560,
      "​": 1561,
      "‌": 1562,
      "‍": 1563,
      "‎": 1564,
      "‏": 1565,
      "‐": 1566,
      "‑": 1567,
      "–": 1568,
      "—": 1569,
      "‘": 1570,
      "’": 1571,
      "‚": 1572,
      "‛": 1573,
      "“": 1574,
      "”": 1575,
      "„": 1576,
      "‟": 1577,
      "†": 1578,
      "‡": 1579,
      "•": 1580,
      "․": 1581,
      "…": 1582,
      "‪": 1583,
      "‫": 1584,
      "‬": 1585,
      "‭": 1586,
      "‰": 1587,
      "′": 1588,
      "″": 1589,
      "‴": 1590,
      "‹": 1591,
      "›": 1592,
      "‼": 1593,
      "⁂": 1594,
      "⁄": 1595,
      "⁉": 1596,
      "⁗": 1597,
      "⁠": 1598,
      "⁡": 1599,
      "₂": 1600,
      "₃": 1601,
      "₄": 1602,
      "₤": 1603,
      "₨": 1604,
      "₪": 1605,
      "€": 1606,
      "₱": 1607,
      "₹": 1608,
      "₿": 1609,
      "℃": 1610,
      "℉": 1611,
      "ℓ": 1612,
      "℡": 1613,
      "™": 1614,
      "←": 1615,
      "↑": 1616,
      "→": 1617,
      "↓": 1618,
      "↛": 1619,
      "↦": 1620,
      "↩": 1621,
      "⇌": 1622,
      "⇒": 1623,
      "⇔": 1624,
      "⇦": 1625,
      "⇨": 1626,
      "⇩": 1627,
      "∂": 1628,
      "∅": 1629,
      "∇": 1630,
      "∈": 1631,
      "∑": 1632,
      "−": 1633,
      "∕": 1634,
      "∖": 1635,
      "∗": 1636,
      "∘": 1637,
      "√": 1638,
      "∝": 1639,
      "∞": 1640,
      "∠": 1641,
      "∣": 1642,
      "∥": 1643,
      "∧": 1644,
      "∨": 1645,
      "∩": 1646,
      "∪": 1647,
      "∫": 1648,
      "∮": 1649,
      "∼": 1650,
      "≃": 1651,
      "≈": 1652,
      "≠": 1653,
      "≡": 1654,
      "≤": 1655,
      "≥": 1656,
      "≫": 1657,
      "⊂": 1658,
      "⊃": 1659,
      "⊆": 1660,
      "⊊": 1661,
      "⊕": 1662,
      "⊖": 1663,
      "⊗": 1664,
      "⊢": 1665,
      "⊥": 1666,
      "⋃": 1667,
      "⋅": 1668,
      "⋯": 1669,
      "⌕": 1670,
      "⏎": 1671,
      "▄": 1672,
      "■": 1673,
      "□": 1674,
      "▪": 1675,
      "▫": 1676,
      "▲": 1677,
      "△": 1678,
      "▴": 1679,
      "▶": 1680,
      "▸": 1681,
      "►": 1682,
      "▼": 1683,
      "▽": 1684,
      "▾": 1685,
      "◀": 1686,
      "◆": 1687,
      "◇": 1688,
      "○": 1689,
      "◌": 1690,
      "●": 1691,
      "◯": 1692,
      "☃": 1693,
      "★": 1694,
      "☎": 1695,
      "☏": 1696,
      "☕": 1697,
      "☞": 1698,
      "☩": 1699,
      "☸": 1700,
      "☺": 1701,
      "☼": 1702,
      "♀": 1703,
      "♍": 1704,
      "♠": 1705,
      "♥": 1706,
      "♦": 1707,
      "♪": 1708,
      "♫": 1709,
      "♭": 1710,
      "⚕": 1711,
      "✅": 1712,
      "✆": 1713,
      "✍": 1714,
      "✓": 1715,
      "✔": 1716,
      "✘": 1717,
      "✨": 1718,
      "❁": 1719,
      "❍": 1720,
      "❏": 1721,
      "❑": 1722,
      "❓": 1723,
      "❖": 1724,
      "❗": 1725,
      "❤": 1726,
      "➊": 1727,
      "➋": 1728,
      "➌": 1729,
      "➢": 1730,
      "➤": 1731,
      "➧": 1732,
      "⟨": 1733,
      "⟩": 1734,
      "⠛": 1735,
      "⦁": 1736,
      "⬇": 1737,
      "ⴰ": 1738,
      "ⴼ": 1739,
      "ⴽ": 1740,
      "ⵉ": 1741,
      "ⵏ": 1742,
      "ⵔ": 1743,
      "。": 1744,
      "ず": 1745,
      "た": 1746,
      "の": 1747,
      "み": 1748,
      "り": 1749,
      "ア": 1750,
      "イ": 1751,
      "ウ": 1752,
      "オ": 1753,
      "ガ": 1754,
      "ギ": 1755,
      "ク": 1756,
      "コ": 1757,
      "サ": 1758,
      "ジ": 1759,
      "ス": 1760,
      "ソ": 1761,
      "ダ": 1762,
      "チ": 1763,
      "ッ": 1764,
      "ツ": 1765,
      "テ": 1766,
      "ト": 1767,
      "ド": 1768,
      "ナ": 1769,
      "ニ": 1770,
      "ノ": 1771,
      "パ": 1772,
      "ビ": 1773,
      "ピ": 1774,
      "フ": 1775,
      "ベ": 1776,
      "ホ": 1777,
      "ポ": 1778,
      "マ": 1779,
      "ミ": 1780,
      "ャ": 1781,
      "ョ": 1782,
      "ラ": 1783,
      "リ": 1784,
      "レ": 1785,
      "ロ": 1786,
      "ワ": 1787,
      "ン": 1788,
      "・": 1789,
      "ー": 1790,
      "ㄱ": 1791,
      "ㄲ": 1792,
      "ㄳ": 1793,
      "ㄴ": 1794,
      "ㄵ": 1795,
      "ㄶ": 1796,
      "ㄷ": 1797,
      "ㄸ": 1798,
      "ㄹ": 1799,
      "ㄺ": 1800,
      "ㄻ": 1801,
      "ㄼ": 1802,
      "ㄽ": 1803,
      "ㄾ": 1804,
      "ㄿ": 1805,
      "ㅀ": 1806,
      "ㅁ": 1807,
      "ㅂ": 1808,
      "ㅃ": 1809,
      "ㅄ": 1810,
      "ㅅ": 1811,
      "ㅆ": 1812,
      "ㅇ": 1813,
      "ㅈ": 1814,
      "ㅉ": 1815,
      "ㅊ": 1816,
      "ㅋ": 1817,
      "ㅌ": 1818,
      "ㅍ": 1819,
      "ㅎ": 1820,
      "ㅏ": 1821,
      "ㅐ": 1822,
      "ㅑ": 1823,
      "ㅒ": 1824,
      "ㅓ": 1825,
      "ㅔ": 1826,
      "ㅕ": 1827,
      "ㅖ": 1828,
      "ㅗ": 1829,
      "ㅘ": 1830,
      "ㅙ": 1831,
      "ㅚ": 1832,
      "ㅛ": 1833,
      "ㅜ": 1834,
      "ㅝ": 1835,
      "ㅞ": 1836,
      "ㅟ": 1837,
      "ㅠ": 1838,
      "ㅡ": 1839,
      "ㅢ": 1840,
      "ㅣ": 1841,
      "ㅥ": 1842,
      "ㅦ": 1843,
      "ㅧ": 1844,
      "ㅨ": 1845,
      "ㅩ": 1846,
      "ㅪ": 1847,
      "ㅫ": 1848,
      "ㅬ": 1849,
      "ㅭ": 1850,
      "ㅮ": 1851,
      "ㅯ": 1852,
      "ㅰ": 1853,
      "ㅱ": 1854,
      "ㅲ": 1855,
      "ㅳ": 1856,
      "ㅴ": 1857,
      "ㅵ": 1858,
      "ㅶ": 1859,
      "ㅷ": 1860,
      "ㅸ": 1861,
      "ㅹ": 1862,
      "ㅺ": 1863,
      "ㅻ": 1864,
      "ㅼ": 1865,
      "ㅽ": 1866,
      "ㅾ": 1867,
      "ㅿ": 1868,
      "ㆁ": 1869,
      "ㆂ": 1870,
      "ㆃ": 1871,
      "ㆄ": 1872,
      "ㆅ": 1873,
      "ㆆ": 1874,
      "ㆍ": 1875,
      "一": 1876,
      "丁": 1877,
      "三": 1878,
      "上": 1879,
      "下": 1880,
      "不": 1881,
      "世": 1882,
      "东": 1883,
      "严": 1884,
      "中": 1885,
      "丹": 1886,
      "主": 1887,
      "乌": 1888,
      "九": 1889,
      "也": 1890,
      "书": 1891,
      "事": 1892,
      "二": 1893,
      "云": 1894,
      "互": 1895,
      "五": 1896,
      "亚": 1897,
      "交": 1898,
      "京": 1899,
      "人": 1900,
      "仁": 1901,
      "仇": 1902,
      "仓": 1903,
      "仙": 1904,
      "代": 1905,
      "仪": 1906,
      "件": 1907,
      "会": 1908,
      "传": 1909,
      "伽": 1910,
      "佐": 1911,
      "体": 1912,
      "佛": 1913,
      "作": 1914,
      "保": 1915,
      "信": 1916,
      "倉": 1917,
      "傳": 1918,
      "儀": 1919,
      "元": 1920,
      "光": 1921,
      "兔": 1922,
      "党": 1923,
      "內": 1924,
      "八": 1925,
      "公": 1926,
      "六": 1927,
      "共": 1928,
      "其": 1929,
      "典": 1930,
      "内": 1931,
      "冉": 1932,
      "冷": 1933,
      "凤": 1934,
      "分": 1935,
      "切": 1936,
      "刊": 1937,
      "列": 1938,
      "利": 1939,
      "剌": 1940,
      "剧": 1941,
      "力": 1942,
      "功": 1943,
      "加": 1944,
      "勒": 1945,
      "勝": 1946,
      "勿": 1947,
      "化": 1948,
      "北": 1949,
      "医": 1950,
      "區": 1951,
      "十": 1952,
      "千": 1953,
      "半": 1954,
      "华": 1955,
      "南": 1956,
      "卜": 1957,
      "印": 1958,
      "厂": 1959,
      "原": 1960,
      "厥": 1961,
      "参": 1962,
      "及": 1963,
      "友": 1964,
      "口": 1965,
      "台": 1966,
      "司": 1967,
      "合": 1968,
      "吉": 1969,
      "名": 1970,
      "向": 1971,
      "命": 1972,
      "和": 1973,
      "哥": 1974,
      "善": 1975,
      "喜": 1976,
      "嘉": 1977,
      "囊": 1978,
      "四": 1979,
      "団": 1980,
      "园": 1981,
      "国": 1982,
      "图": 1983,
      "圆": 1984,
      "國": 1985,
      "園": 1986,
      "圓": 1987,
      "土": 1988,
      "圣": 1989,
      "地": 1990,
      "场": 1991,
      "块": 1992,
      "坡": 1993,
      "城": 1994,
      "埠": 1995,
      "塊": 1996,
      "塔": 1997,
      "壁": 1998,
      "备": 1999,
      "复": 2000,
      "夏": 2001,
      "外": 2002,
      "大": 2003,
      "天": 2004,
      "夫": 2005,
      "央": 2006,
      "奄": 2007,
      "套": 2008,
      "女": 2009,
      "如": 2010,
      "始": 2011,
      "子": 2012,
      "孔": 2013,
      "字": 2014,
      "孝": 2015,
      "季": 2016,
      "学": 2017,
      "學": 2018,
      "宁": 2019,
      "安": 2020,
      "宗": 2021,
      "定": 2022,
      "宜": 2023,
      "宣": 2024,
      "宮": 2025,
      "家": 2026,
      "宿": 2027,
      "寶": 2028,
      "寺": 2029,
      "封": 2030,
      "小": 2031,
      "少": 2032,
      "尔": 2033,
      "局": 2034,
      "居": 2035,
      "属": 2036,
      "山": 2037,
      "屿": 2038,
      "岐": 2039,
      "岔": 2040,
      "岗": 2041,
      "岛": 2042,
      "岡": 2043,
      "島": 2044,
      "崎": 2045,
      "嶼": 2046,
      "州": 2047,
      "巨": 2048,
      "己": 2049,
      "巴": 2050,
      "市": 2051,
      "布": 2052,
      "帝": 2053,
      "師": 2054,
      "幌": 2055,
      "干": 2056,
      "平": 2057,
      "年": 2058,
      "庄": 2059,
      "床": 2060,
      "底": 2061,
      "度": 2062,
      "康": 2063,
      "廣": 2064,
      "开": 2065,
      "式": 2066,
      "弟": 2067,
      "当": 2068,
      "形": 2069,
      "德": 2070,
      "忠": 2071,
      "悠": 2072,
      "惠": 2073,
      "意": 2074,
      "懷": 2075,
      "懿": 2076,
      "戈": 2077,
      "成": 2078,
      "戲": 2079,
      "戸": 2080,
      "所": 2081,
      "打": 2082,
      "抢": 2083,
      "拉": 2084,
      "拳": 2085,
      "振": 2086,
      "撫": 2087,
      "改": 2088,
      "政": 2089,
      "敗": 2090,
      "教": 2091,
      "散": 2092,
      "数": 2093,
      "文": 2094,
      "斯": 2095,
      "新": 2096,
      "方": 2097,
      "於": 2098,
      "施": 2099,
      "族": 2100,
      "日": 2101,
      "时": 2102,
      "昇": 2103,
      "明": 2104,
      "易": 2105,
      "星": 2106,
      "春": 2107,
      "時": 2108,
      "晉": 2109,
      "普": 2110,
      "暗": 2111,
      "暴": 2112,
      "曇": 2113,
      "曲": 2114,
      "書": 2115,
      "曼": 2116,
      "會": 2117,
      "月": 2118,
      "朝": 2119,
      "期": 2120,
      "木": 2121,
      "本": 2122,
      "札": 2123,
      "术": 2124,
      "机": 2125,
      "李": 2126,
      "村": 2127,
      "杜": 2128,
      "来": 2129,
      "東": 2130,
      "松": 2131,
      "林": 2132,
      "柔": 2133,
      "株": 2134,
      "梆": 2135,
      "梨": 2136,
      "椿": 2137,
      "榜": 2138,
      "樂": 2139,
      "樟": 2140,
      "横": 2141,
      "檗": 2142,
      "欣": 2143,
      "欧": 2144,
      "欲": 2145,
      "歌": 2146,
      "歓": 2147,
      "正": 2148,
      "武": 2149,
      "歷": 2150,
      "毒": 2151,
      "毛": 2152,
      "毫": 2153,
      "民": 2154,
      "水": 2155,
      "汁": 2156,
      "汉": 2157,
      "汗": 2158,
      "江": 2159,
      "池": 2160,
      "沈": 2161,
      "沙": 2162,
      "河": 2163,
      "法": 2164,
      "波": 2165,
      "泰": 2166,
      "洛": 2167,
      "洞": 2168,
      "津": 2169,
      "洲": 2170,
      "派": 2171,
      "流": 2172,
      "浙": 2173,
      "浜": 2174,
      "浣": 2175,
      "海": 2176,
      "淘": 2177,
      "淡": 2178,
      "淮": 2179,
      "清": 2180,
      "港": 2181,
      "湖": 2182,
      "湾": 2183,
      "滥": 2184,
      "滩": 2185,
      "漠": 2186,
      "漢": 2187,
      "濟": 2188,
      "瀋": 2189,
      "瀑": 2190,
      "火": 2191,
      "烧": 2192,
      "焰": 2193,
      "熊": 2194,
      "爆": 2195,
      "牌": 2196,
      "牙": 2197,
      "犯": 2198,
      "独": 2199,
      "猫": 2200,
      "玉": 2201,
      "王": 2202,
      "珍": 2203,
      "珮": 2204,
      "理": 2205,
      "琛": 2206,
      "瑠": 2207,
      "璃": 2208,
      "甘": 2209,
      "生": 2210,
      "甫": 2211,
      "田": 2212,
      "甲": 2213,
      "电": 2214,
      "町": 2215,
      "界": 2216,
      "畫": 2217,
      "病": 2218,
      "白": 2219,
      "皇": 2220,
      "益": 2221,
      "相": 2222,
      "省": 2223,
      "県": 2224,
      "真": 2225,
      "睿": 2226,
      "知": 2227,
      "矩": 2228,
      "短": 2229,
      "石": 2230,
      "砂": 2231,
      "研": 2232,
      "砖": 2233,
      "砸": 2234,
      "社": 2235,
      "禁": 2236,
      "禅": 2237,
      "福": 2238,
      "禪": 2239,
      "科": 2240,
      "種": 2241,
      "究": 2242,
      "空": 2243,
      "突": 2244,
      "窗": 2245,
      "立": 2246,
      "站": 2247,
      "笛": 2248,
      "笼": 2249,
      "管": 2250,
      "紫": 2251,
      "細": 2252,
      "紹": 2253,
      "經": 2254,
      "縄": 2255,
      "红": 2256,
      "续": 2257,
      "罗": 2258,
      "罪": 2259,
      "羅": 2260,
      "美": 2261,
      "群": 2262,
      "義": 2263,
      "肃": 2264,
      "肅": 2265,
      "肥": 2266,
      "胎": 2267,
      "至": 2268,
      "臺": 2269,
      "航": 2270,
      "船": 2271,
      "芝": 2272,
      "芥": 2273,
      "花": 2274,
      "芽": 2275,
      "苑": 2276,
      "苹": 2277,
      "萍": 2278,
      "著": 2279,
      "蒙": 2280,
      "蔵": 2281,
      "薬": 2282,
      "藍": 2283,
      "藝": 2284,
      "藩": 2285,
      "蘭": 2286,
      "虎": 2287,
      "蚊": 2288,
      "蚌": 2289,
      "行": 2290,
      "術": 2291,
      "裕": 2292,
      "裸": 2293,
      "製": 2294,
      "西": 2295,
      "要": 2296,
      "見": 2297,
      "视": 2298,
      "角": 2299,
      "言": 2300,
      "記": 2301,
      "詞": 2302,
      "語": 2303,
      "词": 2304,
      "语": 2305,
      "豉": 2306,
      "貌": 2307,
      "貓": 2308,
      "貝": 2309,
      "貞": 2310,
      "貴": 2311,
      "贛": 2312,
      "贞": 2313,
      "败": 2314,
      "贵": 2315,
      "赣": 2316,
      "赫": 2317,
      "越": 2318,
      "路": 2319,
      "蹴": 2320,
      "軍": 2321,
      "軒": 2322,
      "辉": 2323,
      "農": 2324,
      "辽": 2325,
      "迈": 2326,
      "近": 2327,
      "连": 2328,
      "通": 2329,
      "速": 2330,
      "道": 2331,
      "遼": 2332,
      "邑": 2333,
      "郎": 2334,
      "郡": 2335,
      "部": 2336,
      "都": 2337,
      "酥": 2338,
      "酱": 2339,
      "里": 2340,
      "重": 2341,
      "野": 2342,
      "金": 2343,
      "釣": 2344,
      "鉑": 2345,
      "銮": 2346,
      "錄": 2347,
      "鐵": 2348,
      "钓": 2349,
      "長": 2350,
      "长": 2351,
      "門": 2352,
      "開": 2353,
      "闘": 2354,
      "间": 2355,
      "阜": 2356,
      "阳": 2357,
      "阿": 2358,
      "附": 2359,
      "陕": 2360,
      "院": 2361,
      "陵": 2362,
      "険": 2363,
      "陽": 2364,
      "雲": 2365,
      "霞": 2366,
      "青": 2367,
      "靜": 2368,
      "非": 2369,
      "面": 2370,
      "革": 2371,
      "鞠": 2372,
      "韓": 2373,
      "頂": 2374,
      "頡": 2375,
      "顶": 2376,
      "颉": 2377,
      "颖": 2378,
      "额": 2379,
      "飞": 2380,
      "飼": 2381,
      "館": 2382,
      "馆": 2383,
      "香": 2384,
      "馬": 2385,
      "駅": 2386,
      "高": 2387,
      "魚": 2388,
      "鱼": 2389,
      "鲁": 2390,
      "鲜": 2391,
      "鳳": 2392,
      "鴦": 2393,
      "鵜": 2394,
      "鶴": 2395,
      "鹅": 2396,
      "鹿": 2397,
      "麻": 2398,
      "黃": 2399,
      "黄": 2400,
      "黑": 2401,
      "黨": 2402,
      "齐": 2403,
      "龍": 2404,
      "龙": 2405,
      "ꙑ": 2406,
      "ꜜ": 2407,
      "ꦂ": 2408,
      "ꦃ": 2409,
      "ꦏ": 2410,
      "ꦒ": 2411,
      "ꦔ": 2412,
      "ꦗ": 2413,
      "ꦠ": 2414,
      "ꦢ": 2415,
      "ꦤ": 2416,
      "ꦪ": 2417,
      "ꦫ": 2418,
      "ꦮ": 2419,
      "ꦯ": 2420,
      "ꦲ": 2421,
      "ꦴ": 2422,
      "ꦶ": 2423,
      "ꦸ": 2424,
      "ꦺ": 2425,
      "ꦼ": 2426,
      "ꦾ": 2427,
      "ꦿ": 2428,
      "꧀": 2429,
      "경": 2430,
      "공": 2431,
      "구": 2432,
      "국": 2433,
      "군": 2434,
      "그": 2435,
      "기": 2436,
      "김": 2437,
      "녕": 2438,
      "단": 2439,
      "담": 2440,
      "당": 2441,
      "대": 2442,
      "도": 2443,
      "동": 2444,
      "랑": 2445,
      "력": 2446,
      "련": 2447,
      "로": 2448,
      "룹": 2449,
      "리": 2450,
      "면": 2451,
      "무": 2452,
      "문": 2453,
      "물": 2454,
      "민": 2455,
      "반": 2456,
      "법": 2457,
      "변": 2458,
      "사": 2459,
      "삼": 2460,
      "서": 2461,
      "선": 2462,
      "성": 2463,
      "소": 2464,
      "송": 2465,
      "수": 2466,
      "시": 2467,
      "십": 2468,
      "악": 2469,
      "여": 2470,
      "연": 2471,
      "예": 2472,
      "오": 2473,
      "원": 2474,
      "읍": 2475,
      "인": 2476,
      "자": 2477,
      "잔": 2478,
      "재": 2479,
      "전": 2480,
      "정": 2481,
      "제": 2482,
      "조": 2483,
      "찬": 2484,
      "천": 2485,
      "체": 2486,
      "특": 2487,
      "학": 2488,
      "한": 2489,
      "항": 2490,
      "해": 2491,
      "향": 2492,
      "헌": 2493,
      "현": 2494,
      "": 2495,
      "": 2496,
      "": 2497,
      "": 2498,
      "": 2499,
      "": 2500,
      "": 2501,
      "": 2502,
      "": 2503,
      "": 2504,
      "": 2505,
      "": 2506,
      "": 2507,
      "": 2508,
      "": 2509,
      "": 2510,
      "": 2511,
      "": 2512,
      "": 2513,
      "": 2514,
      "": 2515,
      "": 2516,
      "": 2517,
      "": 2518,
      "": 2519,
      "": 2520,
      "": 2521,
      "": 2522,
      "": 2523,
      "": 2524,
      "": 2525,
      "": 2526,
      "": 2527,
      "": 2528,
      "": 2529,
      "": 2530,
      "": 2531,
      "": 2532,
      "": 2533,
      "": 2534,
      "": 2535,
      "": 2536,
      "": 2537,
      "": 2538,
      "": 2539,
      "": 2540,
      "": 2541,
      "": 2542,
      "": 2543,
      "": 2544,
      "": 2545,
      "": 2546,
      "": 2547,
      "": 2548,
      "": 2549,
      "": 2550,
      "": 2551,
      "": 2552,
      "": 2553,
      "": 2554,
      "️": 2555,
      "﹐": 2556,
      "ﺋ": 2557,
      "ﻴ": 2558,
      "﻿": 2559,
      "！": 2560,
      "（": 2561,
      "）": 2562,
      "，": 2563,
      "：": 2564,
      "？": 2565,
      "￼": 2566,
      "𐎠": 2567,
      "𐎱": 2568,
      "𐎼": 2569,
      "𐎿": 2570,
      "𐭉": 2571,
      "𐭌": 2572,
      "𐭍": 2573,
      "𐭔": 2574,
      "𑚊": 2575,
      "𑚔": 2576,
      "𑚤": 2577,
      "𑚫": 2578,
      "𑚭": 2579,
      "𑚯": 2580,
      "𒀭": 2581,
      "𒁺": 2582,
      "𒂗": 2583,
      "𒃶": 2584,
      "𒈾": 2585,
      "🍀": 2586,
      "🍄": 2587,
      "🍋": 2588,
      "🏻": 2589,
      "👆": 2590,
      "👇": 2591,
      "👈": 2592,
      "👉": 2593,
      "👌": 2594,
      "👍": 2595,
      "👏": 2596,
      "👧": 2597,
      "💐": 2598,
      "💕": 2599,
      "💛": 2600,
      "💟": 2601,
      "💥": 2602,
      "💪": 2603,
      "📹": 2604,
      "🔎": 2605,
      "🔥": 2606,
      "🖌": 2607,
      "😁": 2608,
      "😂": 2609,
      "😃": 2610,
      "😄": 2611,
      "😇": 2612,
      "😉": 2613,
      "😊": 2614,
      "😍": 2615,
      "😎": 2616,
      "😏": 2617,
      "😐": 2618,
      "😘": 2619,
      "😜": 2620,
      "😞": 2621,
      "😟": 2622,
      "😡": 2623,
      "😢": 2624,
      "😦": 2625,
      "😭": 2626,
      "😯": 2627,
      "😰": 2628,
      "🙂": 2629,
      "🙄": 2630,
      "🙏": 2631,
      "🤒": 2632,
      "🤔": 2633,
      "🤗": 2634,
      "🤘": 2635,
      "🤮": 2636,
      "்க": 2637,
      "்த": 2638,
      "ம்": 2639,
      "ன்": 2640,
      "ல்": 2641,
      "க்க": 2642,
      "்ப": 2643,
      "்ட": 2644,
      "த்த": 2645,
      "ும்": 2646,
      "ர்": 2647,
      "ள்": 2648,
      "ிய": 2649,
      "து": 2650,
      "ப்ப": 2651,
      "ந்த": 2652,
      "ரு": 2653,
      "ட்ட": 2654,
      "ில்": 2655,
      "வி": 2656,
      "ங்க": 2657,
      "ைய": 2658,
      "தி": 2659,
      "ாக": 2660,
      "ிற": 2661,
      "ற்": 2662,
      "டு": 2663,
      "ள்ள": 2664,
      "ற்ற": 2665,
      "ின்": 2666,
      "க்கு": 2667,
      "ர்க": 2668,
      "மு": 2669,
      "்ச": 2670,
      "மா": 2671,
      "ரி": 2672,
      "ண்ட": 2673,
      "த்து": 2674,
      "டி": 2675,
      "லை": 2676,
      "ன்ற": 2677,
      "கு": 2678,
      "கா": 2679,
      "செ": 2680,
      "ார்": 2681,
      "வா": 2682,
      "கள": 2683,
      "ில": 2684,
      "அவ": 2685,
      "பி": 2686,
      "வே": 2687,
      "ான": 2688,
      "ட்டு": 2689,
      "வு": 2690,
      "பா": 2691,
      "நா": 2692,
      "ப்": 2693,
      "க்": 2694,
      "இந்த": 2695,
      "செய": 2696,
      "ந்து": 2697,
      "போ": 2698,
      "இரு": 2699,
      "தா": 2700,
      "ரா": 2701,
      "ர்கள்": 2702,
      "ங்கள": 2703,
      "னா": 2704,
      "பெ": 2705,
      "கொ": 2706,
      "கள்": 2707,
      "று": 2708,
      "றி": 2709,
      "ச்ச": 2710,
      "ல்ல": 2711,
      "னை": 2712,
      "ிரு": 2713,
      "னர்": 2714,
      "மை": 2715,
      "த்": 2716,
      "ற்க": 2717,
      "ப்பு": 2718,
      "பு": 2719,
      "ங்கள்": 2720,
      "சி": 2721,
      "வர": 2722,
      "சு": 2723,
      "தொ": 2724,
      "என்ற": 2725,
      "சா": 2726,
      "ியா": 2727,
      "மே": 2728,
      "கிற": 2729,
      "தே": 2730,
      "ர்கள": 2731,
      "த்தில்": 2732,
      "வை": 2733,
      "மி": 2734,
      "மற்ற": 2735,
      "என்": 2736,
      "க்கும்": 2737,
      "வில்": 2738,
      "டை": 2739,
      "நி": 2740,
      "கி": 2741,
      "ுக்கு": 2742,
      "வெ": 2743,
      "ப்பட்ட": 2744,
      "ஸ்": 2745,
      "ஒரு": 2746,
      "மற்றும்": 2747,
      "இத": 2748,
      "ையில்": 2749,
      "ள்ளது": 2750,
      "மாக": 2751,
      "வரு": 2752,
      "ண்": 2753,
      "கூ": 2754,
      "ண்டு": 2755,
      "ற்ப": 2756,
      "ளி": 2757,
      "தெ": 2758,
      "லா": 2759,
      "கோ": 2760,
      "டைய": 2761,
      "ழு": 2762,
      "மான": 2763,
      "ரிய": 2764,
      "என": 2765,
      "ய்": 2766,
      "னால்": 2767,
      "றை": 2768,
      "பொ": 2769,
      "இது": 2770,
      "க்கிற": 2771,
      "ப்பட": 2772,
      "த்தி": 2773,
      "ட்ச": 2774,
      "வும்": 2775,
      "திய": 2776,
      "நீ": 2777,
      "ணி": 2778,
      "அத": 2779,
      "பிர": 2780,
      "த்தை": 2781,
      "ர்ப": 2782,
      "பே": 2783,
      "செய்": 2784,
      "டிய": 2785,
      "ச்": 2786,
      "ையும்": 2787,
      "ர்த": 2788,
      "அதி": 2789,
      "வத": 2790,
      "லி": 2791,
      "னி": 2792,
      "நட": 2793,
      "வழ": 2794,
      "ின்ற": 2795,
      "தொட": 2796,
      "அர": 2797,
      "ப்பி": 2798,
      "நில": 2799,
      "ப்படு": 2800,
      "களை": 2801,
      "ரை": 2802,
      "வர்": 2803,
      "செய்த": 2804,
      "மூ": 2805,
      "ப்பட்டு": 2806,
      "வேண்ட": 2807,
      "கிறது": 2808,
      "வீ": 2809,
      "என்று": 2810,
      "ற்று": 2811,
      "ம்ப": 2812,
      "உள்ள": 2813,
      "மீ": 2814,
      "குறி": 2815,
      "ட்": 2816,
      "லும்": 2817,
      "ன்ன": 2818,
      "ரும்": 2819,
      "செய்ய": 2820,
      "ரண": 2821,
      "டன்": 2822,
      "கை": 2823,
      "தல்": 2824,
      "பய": 2825,
      "ற்கு": 2826,
      "\"\"": 2827,
      "மைய": 2828,
      "சே": 2829,
      "கே": 2830,
      "நிற": 2831,
      "அமை": 2832,
      "வில்லை": 2833,
      "ர்த்த": 2834,
      "அவர்": 2835,
      "த்திய": 2836,
      "பல": 2837,
      "யா": 2838,
      "ளை": 2839,
      "ழ்": 2840,
      "சிய": 2841,
      "ான்": 2842,
      "னு": 2843,
      "வது": 2844,
      "த்தின்": 2845,
      "ிர": 2846,
      "ேன்": 2847,
      "ங்கு": 2848,
      "ஆக": 2849,
      "தெரி": 2850,
      "டம்": 2851,
      "வேண்டும்": 2852,
      "20": 2853,
      "சொ": 2854,
      "ிற்க": 2855,
      "ன்று": 2856,
      "கட": 2857,
      "ஆனால்": 2858,
      "ால்": 2859,
      "ுவ": 2860,
      "தீ": 2861,
      "அறி": 2862,
      "தலை": 2863,
      "ரிக்க": 2864,
      "என்ப": 2865,
      "தை": 2866,
      "ட்டி": 2867,
      "வ்": 2868,
      "டுத்த": 2869,
      "கின்ற": 2870,
      "சிற": 2871,
      "தாக": 2872,
      "கொண்ட": 2873,
      "ரம்": 2874,
      "இய": 2875,
      "க்கிய": 2876,
      "தெரிவி": 2877,
      "இருந்த": 2878,
      "்கள்": 2879,
      "ரூ": 2880,
      "டுத்து": 2881,
      "ற்றி": 2882,
      "எதி": 2883,
      "அந்த": 2884,
      "மக்க": 2885,
      "ாள": 2886,
      "ிருந்த": 2887,
      "மோ": 2888,
      "அது": 2889,
      "ப்போ": 2890,
      "ண்ண": 2891,
      "பட": 2892,
      "டிக்க": 2893,
      "00": 2894,
      "ுள்ள": 2895,
      "ரோ": 2896,
      "நான்": 2897,
      "களில்": 2898,
      "மெ": 2899,
      "வாக": 2900,
      "தான்": 2901,
      "ல்லா": 2902,
      "ர்க்க": 2903,
      "க்கிறது": 2904,
      "இந்தியா": 2905,
      "ார்கள்": 2906,
      "கம்": 2907,
      "வின்": 2908,
      "ஏற்ப": 2909,
      "ங்களை": 2910,
      "ட்சி": 2911,
      "உய": 2912,
      "வர்கள": 2913,
      "என்ன": 2914,
      "ையை": 2915,
      "விய": 2916,
      "ஸ்த": 2917,
      "பின்": 2918,
      "த்திற்க": 2919,
      "ணை": 2920,
      "பதி": 2921,
      "கவ": 2922,
      "ளிய": 2923,
      "திரு": 2924,
      "ோம்": 2925,
      "இர": 2926,
      "நே": 2927,
      "ராக": 2928,
      "க்கப்பட்ட": 2929,
      "ிலும்": 2930,
      "லீ": 2931,
      "ங்களில்": 2932,
      "டும்": 2933,
      "க்கி": 2934,
      "்கள": 2935,
      "க்கொ": 2936,
      "விட்ட": 2937,
      "முதல்": 2938,
      "லம்": 2939,
      "ல்லை": 2940,
      "அதிக": 2941,
      "இந்திய": 2942,
      "ங்கி": 2943,
      "ஞ்ச": 2944,
      "வர்கள்": 2945,
      "மிக": 2946,
      "வள": 2947,
      "ழை": 2948,
      "வெளிய": 2949,
      "ருத்து": 2950,
      "ழி": 2951,
      "ியில்": 2952,
      "வரும்": 2953,
      "மும்": 2954,
      "ர்ப்ப": 2955,
      "அவர்கள": 2956,
      "திட்ட": 2957,
      "உட": 2958,
      "தமி": 2959,
      "மதி": 2960,
      "அரசு": 2961,
      "ப்படி": 2962,
      "ஆகிய": 2963,
      "க்கா": 2964,
      "பொரு": 2965,
      "சில": 2966,
      "ப்பா": 2967,
      "ந்தி": 2968,
      "டா": 2969,
      "பெற்ற": 2970,
      "தம்": 2971,
      "லு": 2972,
      "வரை": 2973,
      "லாம்": 2974,
      "தர": 2975,
      "லக": 2976,
      "நடி": 2977,
      "ருக்கு": 2978,
      "தம": 2979,
      "ரே": 2980,
      "இல்லை": 2981,
      "றிய": 2982,
      "அல்ல": 2983,
      "ஸ்ட": 2984,
      "வந்த": 2985,
      "ப்படும்": 2986,
      "படி": 2987,
      "னார்": 2988,
      "ஷ்": 2989,
      "தன": 2990,
      "முன்": 2991,
      "விசா": 2992,
      "சீ": 2993,
      "நோ": 2994,
      "தவி": 2995,
      "தொழ": 2996,
      "அனு": 2997,
      "்கிற": 2998,
      "முடி": 2999,
      "மேலும்": 3000,
      "மன": 3001,
      "நாடு": 3002,
      "ிருந்து": 3003,
      "ர்ந்து": 3004,
      "தொடர்ப": 3005,
      "ள்ளார்": 3006,
      "நம்": 3007,
      "மாநில": 3008,
      "மொ": 3009,
      "த்திற்கு": 3010,
      "நிலை": 3011,
      "ச்சி": 3012,
      "க்கப்பட்டு": 3013,
      "நிறுவ": 3014,
      "போலீ": 3015,
      "அனை": 3016,
      "தல": 3017,
      "முறை": 3018,
      "போது": 3019,
      "அவர்கள்": 3020,
      "இட": 3021,
      "தில்": 3022,
      "க்கான": 3023,
      "பர": 3024,
      "சோ": 3025,
      "பை": 3026,
      "பிற": 3027,
      "19": 3028,
      "குறித்து": 3029,
      "பூ": 3030,
      "தோ": 3031,
      "நிறுவன": 3032,
      "மத்திய": 3033,
      "பிரதம": 3034,
      "சம்ப": 3035,
      "ங்களுக்கு": 3036,
      "ுடைய": 3037,
      "களுக்கு": 3038,
      "ராஜ": 3039,
      "பண": 3040,
      "சட்ட": 3041,
      "அளி": 3042,
      "உள்ளது": 3043,
      "மருத்து": 3044,
      "மன்ற": 3045,
      "ர்ந்த": 3046,
      "ையா": 3047,
      "செய்து": 3048,
      "நாம்": 3049,
      "சூ": 3050,
      "குதி": 3051,
      "சார்": 3052,
      "கால": 3053,
      "நடை": 3054,
      "கொண்டு": 3055,
      "கொள்ள": 3056,
      "அமைச்ச": 3057,
      "கல": 3058,
      "தன்": 3059,
      "கட்ட": 3060,
      "கர்": 3061,
      "வருகின்ற": 3062,
      "தும்": 3063,
      "வழங்க": 3064,
      "வட்ட": 3065,
      "மல்": 3066,
      "யம்": 3067,
      "ளா": 3068,
      "வருகிறது": 3069,
      "விட": 3070,
      "றைய": 3071,
      "உறு": 3072,
      "இருக்க": 3073,
      "த்தார்": 3074,
      "்ச்ச": 3075,
      "வேறு": 3076,
      "முக்கிய": 3077,
      "ியை": 3078,
      "நீதி": 3079,
      "ழந்த": 3080,
      "விசாரண": 3081,
      "அதை": 3082,
      "முழு": 3083,
      "க்கை": 3084,
      "ன்ப": 3085,
      "மாண": 3086,
      "அள": 3087,
      "பரி": 3088,
      "ற்கொ": 3089,
      "என்பது": 3090,
      "எழு": 3091,
      "ரில்": 3092,
      "ுடன்": 3093,
      ".\"": 3094,
      "எந்த": 3095,
      "ொரு": 3096,
      "குறை": 3097,
      "வாய": 3098,
      "குறிப்பி": 3099,
      "துகா": 3100,
      "களின்": 3101,
      "ேய": 3102,
      "வாழ": 3103,
      "பட்ட": 3104,
      "மக்கள்": 3105,
      "பிரதமர்": 3106,
      "கண": 3107,
      "மருத்துவ": 3108,
      "பாதுகா": 3109,
      "ர்வ": 3110,
      "இதில்": 3111,
      "டுக்க": 3112,
      "காரண": 3113,
      "அல்லது": 3114,
      "உரு": 3115,
      "செயல்": 3116,
      "புதிய": 3117,
      "உண": 3118,
      "டெ": 3119,
      "ந்திர": 3120,
      "ள்ளனர்": 3121,
      "மூலம்": 3122,
      "சை": 3123,
      "முன்ன": 3124,
      "ப்படுகிறது": 3125,
      "டியா": 3126,
      "ிஸ்த": 3127,
      "தேச": 3128,
      "யெ": 3129,
      "ஜி": 3130,
      "உலக": 3131,
      "201": 3132,
      "வெளி": 3133,
      "ோர்": 3134,
      "ங்": 3135,
      "விசாரணை": 3136,
      "நக": 3137,
      "தார": 3138,
      "விள": 3139,
      "கோவா": 3140,
      "ட்ப": 3141,
      "தகவ": 3142,
      "ர்வு": 3143,
      "லிய": 3144,
      "அமெ": 3145,
      "முக": 3146,
      "அடி": 3147,
      "கீ": 3148,
      "அமெரிக்க": 3149,
      "யி": 3150,
      "கரு": 3151,
      "க்கம்": 3152,
      "நெ": 3153,
      "வம்": 3154,
      "பொது": 3155,
      "சொல்ல": 3156,
      "னும்": 3157,
      "ிருக்கிற": 3158,
      "நாட": 3159,
      "ப்பட்டது": 3160,
      "லட்ச": 3161,
      "நாட்ட": 3162,
      "கைய": 3163,
      "காண": 3164,
      "யெகோவா": 3165,
      "முடிய": 3166,
      "வுக்கு": 3167,
      "தெரிவித்து": 3168,
      "வடிக்க": 3169,
      "க்காக": 3170,
      "நடவடிக்க": 3171,
      "எனக்கு": 3172,
      "தான": 3173,
      "ியின்": 3174,
      "்து": 3175,
      "லில்": 3176,
      "அதிகா": 3177,
      "கூட்ட": 3178,
      "கோடி": 3179,
      "உண்": 3180,
      "ரின்": 3181,
      "இருந்து": 3182,
      "மேற்கொ": 3183,
      "தூ": 3184,
      "்ப்ப": 3185,
      "விடு": 3186,
      "பணி": 3187,
      "வற்ற": 3188,
      "பாதி": 3189,
      "பெற்று": 3190,
      "நிக": 3191,
      "நீங்கள்": 3192,
      "மாவட்ட": 3193,
      "குதிய": 3194,
      "கிடை": 3195,
      "ஆம்": 3196,
      "இருக்கும்": 3197,
      "சந்த": 3198,
      "லோ": 3199,
      "ஒன்ற": 3200,
      "விவ": 3201,
      "அதன்": 3202,
      "உயி": 3203,
      "வழி": 3204,
      "இதனால்": 3205,
      "பெரும்": 3206,
      "களும்": 3207,
      "்களை": 3208,
      "ஜெ": 3209,
      "முடியா": 3210,
      "தமிழ்": 3211,
      "போன்ற": 3212,
      "கடவு": 3213,
      "ப்பை": 3214,
      "பிரி": 3215,
      "ியாக": 3216,
      "ிருக்க": 3217,
      "க்கூ": 3218,
      "்க்க": 3219,
      "பெற": 3220,
      "வில": 3221,
      "ர்த்து": 3222,
      "இதை": 3223,
      "ங்கே": 3224,
      "ஆண்டு": 3225,
      "த்தா": 3226,
      "ள்ளி": 3227,
      "ா்": 3228,
      "தொடர்ந்து": 3229,
      "ழக": 3230,
      "னம்": 3231,
      "வதற்கு": 3232,
      "கையில்": 3233,
      "ற்காக": 3234,
      "ற்போ": 3235,
      "ரீ": 3236,
      "10": 3237,
      "ிலிருந்து": 3238,
      "மக்கள": 3239,
      "திற": 3240,
      "ற்றிய": 3241,
      "ப்போது": 3242,
      "பெய": 3243,
      "த்துக்கு": 3244,
      "ில்லை": 3245,
      "அறிவி": 3246,
      "பற்றி": 3247,
      "பாக": 3248,
      "ராம": 3249,
      "ழ்ச்ச": 3250,
      "விரு": 3251,
      "மீது": 3252,
      "ற்கான": 3253,
      "ிட்ட": 3254,
      "நடவடிக்கை": 3255,
      "வன்": 3256,
      "இருக்கிறது": 3257,
      "கட்டு": 3258,
      "பேர்": 3259,
      "இன்ன": 3260,
      "தற்போ": 3261,
      "ந்தது": 3262,
      "ச்சு": 3263,
      "வச": 3264,
      "\"\"\"": 3265,
      "பயன்ப": 3266,
      "யோ": 3267,
      "ப்பட்டுள்ளது": 3268,
      "மின்": 3269,
      "வேலை": 3270,
      "இவ்": 3271,
      "வான": 3272,
      "நிலையில்": 3273,
      "குழந்த": 3274,
      "கல்": 3275,
      "வாறு": 3276,
      "ரியா": 3277,
      "டும்ப": 3278,
      "எல்லா": 3279,
      "இரண்டு": 3280,
      "அரசிய": 3281,
      "நு": 3282,
      "ப்படுத்த": 3283,
      "மாற்ற": 3284,
      "தயா": 3285,
      "இருப்ப": 3286,
      "குடும்ப": 3287,
      "மனி": 3288,
      "..": 3289,
      "மனை": 3290,
      "கிறார்": 3291,
      "இணை": 3292,
      "ோடு": 3293,
      "மார்": 3294,
      "நிதி": 3295,
      "ுள்ளது": 3296,
      "அணி": 3297,
      "ர்ட": 3298,
      "கூறி": 3299,
      "முய": 3300,
      "சம": 3301,
      "ட்டை": 3302,
      "நிலைய": 3303,
      "நினை": 3304,
      "படு": 3305,
      "தேர்த": 3306,
      "பல்": 3307,
      "இல": 3308,
      "ுக்கும்": 3309,
      "நேர": 3310,
      "வழக்கு": 3311,
      "ச்சை": 3312,
      "ங்கா": 3313,
      "நீதிமன்ற": 3314,
      "தொழில்": 3315,
      "வரி": 3316,
      "மட்டு": 3317,
      "வெற்றி": 3318,
      "ணைய": 3319,
      "வைய": 3320,
      "மையான": 3321,
      "ள்ளன": 3322,
      "ஸ்ப": 3323,
      "ூர்": 3324,
      "பொலி": 3325,
      "ேயே": 3326,
      "ண்டா": 3327,
      "கைது": 3328,
      "்தான்": 3329,
      "தவ": 3330,
      "கூறிய": 3331,
      "தேசிய": 3332,
      "எஸ்": 3333,
      "மோடி": 3334,
      "்கா": 3335,
      "த்தது": 3336,
      "தெரிய": 3337,
      "மிகவும்": 3338,
      "வய": 3339,
      "துறை": 3340,
      "நாங்கள்": 3341,
      "மது": 3342,
      "டைந்த": 3343,
      "என்றார்": 3344,
      "கண்ட": 3345,
      "நல்ல": 3346,
      "பின்னர்": 3347,
      "தனை": 3348,
      "தால்": 3349,
      "ணம்": 3350,
      "காங்க": 3351,
      "விட்டு": 3352,
      "ங்கிய": 3353,
      "ாகும்": 3354,
      "கலந்து": 3355,
      "ிற்ச": 3356,
      "யூ": 3357,
      "மறு": 3358,
      "காங்கிர": 3359,
      "குழந்தை": 3360,
      "பாதுகாப்பு": 3361,
      "எம்": 3362,
      "எப்படி": 3363,
      "அல": 3364,
      "தற்போது": 3365,
      "ந்": 3366,
      "இருக்கிற": 3367,
      "பிடி": 3368,
      "நிய": 3369,
      "வருகின்றனர்": 3370,
      "வித": 3371,
      "அவர": 3372,
      "என்றும்": 3373,
      "ிட": 3374,
      "ர்ச்சி": 3375,
      "இருந்தது": 3376,
      "ிருப்ப": 3377,
      "வல": 3378,
      "பெரு": 3379,
      "ின்றன": 3380,
      "வாய்ப்ப": 3381,
      "போலீசார்": 3382,
      "செல": 3383,
      "என்பதை": 3384,
      "க்கள்": 3385,
      "கின்றன": 3386,
      "வேண்டிய": 3387,
      "பகுதி": 3388,
      "50": 3389,
      "அனைத்து": 3390,
      "பெரிய": 3391,
      "இதன்": 3392,
      "லட்சம்": 3393,
      "தலைவர்": 3394,
      "ட்டும்": 3395,
      "தனது": 3396,
      "ஜன": 3397,
      "ரித்து": 3398,
      "்கு": 3399,
      "வந்து": 3400,
      "சமூ": 3401,
      "குற்ற": 3402,
      "முத": 3403,
      "குழு": 3404,
      "க்த": 3405,
      "யில்": 3406,
      "போட்ட": 3407,
      "ஆண்ட": 3408,
      "ிருக்கிறது": 3409,
      "எண்": 3410,
      "அவரது": 3411,
      "காய": 3412,
      "அதற்கு": 3413,
      "ுள்ளார்": 3414,
      "உருவா": 3415,
      "ப்பில்": 3416,
      "தாவது": 3417,
      "யு": 3418,
      "இற": 3419,
      "டியாக": 3420,
      "தள": 3421,
      "ர்ப்பு": 3422,
      "ரான": 3423,
      "கட்சி": 3424,
      "ஷ்ட": 3425,
      "விரை": 3426,
      "முயற்": 3427,
      "ங்களின்": 3428,
      "வொரு": 3429,
      "்த்த": 3430,
      "நான": 3431,
      "ஏன்": 3432,
      "அண": 3433,
      "பல்வேறு": 3434,
      "நிறை": 3435,
      "ப்பத": 3436,
      "த்திர": 3437,
      "கடந்த": 3438,
      "அரசா": 3439,
      "000": 3440,
      "ட்டில்": 3441,
      "முடியாது": 3442,
      "பொறு": 3443,
      "காங்கிரஸ்": 3444,
      "தனி": 3445,
      "உத": 3446,
      "எடுத்து": 3447,
      "ையின்": 3448,
      "அனுமதி": 3449,
      "சந்தி": 3450,
      "வாழ்க்க": 3451,
      "லே": 3452,
      "இவர்": 3453,
      "செல்ல": 3454,
      "விர": 3455,
      "எது": 3456,
      "த்தனர்": 3457,
      "உதவி": 3458,
      "மொழி": 3459,
      "னா்": 3460,
      "இன்னும்": 3461,
      "12": 3462,
      "சமூக": 3463,
      "சரி": 3464,
      "பர்": 3465,
      "ய்வு": 3466,
      "அதில்": 3467,
      "பழ": 3468,
      "ச்சா": 3469,
      "க்கப்பட்டுள்ளது": 3470,
      "அரசியல்": 3471,
      "அரு": 3472,
      "க்கொள்ள": 3473,
      "கன": 3474,
      "த்தம்": 3475,
      "குறித்த": 3476,
      "''": 3477,
      "ப்பாக": 3478,
      "நிர்": 3479,
      "விஷ": 3480,
      "ிருக்கும்": 3481,
      "போரா": 3482,
      "தொழில": 3483,
      "ஜக": 3484,
      "ஒவ்": 3485,
      "விப": 3486,
      "தகவல்": 3487,
      "பாடு": 3488,
      "பதிவு": 3489,
      "கார்": 3490,
      "பார்க்க": 3491,
      "அவரை": 3492,
      "ஸ்ட்": 3493,
      "விவசா": 3494,
      "இந்தப்": 3495,
      "த்தர": 3496,
      "டையே": 3497,
      "எவ்": 3498,
      "15": 3499,
      "உங்கள்": 3500,
      "க்கொண்ட": 3501,
      "தேவை": 3502,
      "இதற்கு": 3503,
      "ியாள": 3504,
      "அழை": 3505,
      "வீர": 3506,
      "பிறகு": 3507,
      "த்தான்": 3508,
      "கேள்": 3509,
      "ராய": 3510,
      "நாள்": 3511,
      "பாஜக": 3512,
      "ாலும்": 3513,
      "வன": 3514,
      "சேர்ந்த": 3515,
      "குடிய": 3516,
      "நீர்": 3517,
      "கொள": 3518,
      "சின்": 3519,
      "வதாக": 3520,
      "முடியும்": 3521,
      "சர்": 3522,
      "நாய": 3523,
      "ஈடு": 3524,
      "க்கப்பட்டது": 3525,
      "விரும்": 3526,
      "ேசு": 3527,
      "ன்னை": 3528,
      "அமைச்சர்": 3529,
      "முறைய": 3530,
      "கிறிஸ்த": 3531,
      "உயிரி": 3532,
      "பைபி": 3533,
      "ஸார்": 3534,
      "ர்களுக்கு": 3535,
      "பெண": 3536,
      "ரெ": 3537,
      "சிறு": 3538,
      "ல்கள்": 3539,
      "சென்ற": 3540,
      "மனித": 3541,
      "ர்களை": 3542,
      "இயேசு": 3543,
      "அவரு": 3544,
      "ிடம்": 3545,
      "அங்கு": 3546,
      "முதல": 3547,
      "ஆகும்": 3548,
      "ராண": 3549,
      "ரூபா": 3550,
      "தொடர்பாக": 3551,
      "சங்க": 3552,
      "நல": 3553,
      "ையடுத்து": 3554,
      "ீடு": 3555,
      "சிகி": 3556,
      "வதை": 3557,
      "படம்": 3558,
      "த்தையும்": 3559,
      "விமான": 3560,
      "களையும்": 3561,
      "கன்": 3562,
      "ண்டும்": 3563,
      "சத": 3564,
      "எனவே": 3565,
      "பொருளா": 3566,
      "றையில்": 3567,
      "கடவுள": 3568,
      "நம்பி": 3569,
      "அவருக்கு": 3570,
      "க்கில்": 3571,
      "கொடு": 3572,
      "நடத்த": 3573,
      "ழா": 3574,
      "வைத்து": 3575,
      "வாழ்": 3576,
      "ஒன்று": 3577,
      "க்கள": 3578,
      "புரி": 3579,
      "ஒவ்வொரு": 3580,
      "எண்ண": 3581,
      "ிலேயே": 3582,
      "அதிகாரி": 3583,
      "ுங்கள்": 3584,
      "பகுதிய": 3585,
      "அம்": 3586,
      "அரசாங்க": 3587,
      "ாளர்": 3588,
      "நடத்தி": 3589,
      "அமெரிக்கா": 3590,
      "வோ": 3591,
      "நாட்டு": 3592,
      "தாக்கு": 3593,
      "200": 3594,
      "மையாக": 3595,
      "வார்த்த": 3596,
      "தங்கள்": 3597,
      "கூறினார்": 3598,
      "உள்ளன": 3599,
      "சம்பவ": 3600,
      "ப்பது": 3601,
      "முடிவு": 3602,
      "ழிய": 3603,
      "னாள்": 3604,
      "சதவீ": 3605,
      "செலு": 3606,
      "பாட": 3607,
      "ின்றனர்": 3608,
      "முயற்சி": 3609,
      "ட்டம்": 3610,
      "லாக": 3611,
      "விட்டது": 3612,
      "தியாக": 3613,
      "யார்": 3614,
      "உடன": 3615,
      "கேள்வி": 3616,
      "மையில்": 3617,
      "ஜா": 3618,
      "ப்பெ": 3619,
      "ஏற்பட்ட": 3620,
      "ர்பா": 3621,
      "த்துடன்": 3622,
      "இடம்": 3623,
      "இயக்கு": 3624,
      "தமிழக": 3625,
      "வதும்": 3626,
      "கீழ்": 3627,
      "ிற்கு": 3628,
      "ிலான": 3629,
      "செய்யப்பட்ட": 3630,
      "கிறார்கள்": 3631,
      "ராணுவ": 3632,
      "பார": 3633,
      "நன்ற": 3634,
      "மூன்று": 3635,
      "னிய": 3636,
      "விதி": 3637,
      "இதுவரை": 3638,
      "ானது": 3639,
      "குறிப்பிட": 3640,
      "ஏற்படு": 3641,
      "சிகிச்சை": 3642,
      "ட்டார்": 3643,
      "கூற": 3644,
      "ல்லாம்": 3645,
      "செல்": 3646,
      "ங்களும்": 3647,
      "வகையில்": 3648,
      "போட்டி": 3649,
      "அவன்": 3650,
      "சம்": 3651,
      "ிருந்தது": 3652,
      "போல": 3653,
      "கூட": 3654,
      "டீ": 3655,
      "உத்தர": 3656,
      "பயிற்ச": 3657,
      "கல்வி": 3658,
      "இப்பட": 3659,
      "பள்ளி": 3660,
      "அப்போது": 3661,
      "ப்படுத்து": 3662,
      "ண்டி": 3663,
      "மகி": 3664,
      "ினர்": 3665,
      "உற்ப": 3666,
      "உள்ளிட்ட": 3667,
      "அப்படி": 3668,
      "நூ": 3669,
      "ள்ளை": 3670,
      "அலுவ": 3671,
      "வார்": 3672,
      "ஆர்": 3673,
      "இந்தியாவில்": 3674,
      "வர்களுக்கு": 3675,
      "டாது": 3676,
      "ராஜ்": 3677,
      "தீவிர": 3678,
      "திரை": 3679,
      "த்தல்": 3680,
      "நிறு": 3681,
      "பெறு": 3682,
      "கூறு": 3683,
      "விளையா": 3684,
      "மேல்": 3685,
      "நாள": 3686,
      "திரும்": 3687,
      "துணை": 3688,
      "எதிர்பா": 3689,
      "வாத": 3690,
      "பற்றிய": 3691,
      "த்தக்க": 3692,
      "அவ்": 3693,
      "ையே": 3694,
      "மையை": 3695,
      "14": 3696,
      "அடை": 3697,
      "செய்தி": 3698,
      "உறுதி": 3699,
      "ப்ட": 3700,
      "ஒப்ப": 3701,
      "மீண்டும்": 3702,
      "பாகிஸ்த": 3703,
      "ங்கும்": 3704,
      "ல்லி": 3705,
      "18": 3706,
      "ுக்கான": 3707,
      "ாம்": 3708,
      "மன்": 3709,
      "மாறு": 3710,
      "கண்டு": 3711,
      "ாது": 3712,
      "பொருளாதார": 3713,
      "எண்ணி": 3714,
      "கிறேன்": 3715,
      "மேற்ப": 3716,
      "அமைப்பு": 3717,
      "கருத்து": 3718,
      "மண": 3719,
      "மட்டுமே": 3720,
      "காரணமாக": 3721,
      "இல்லா": 3722,
      "சொன்ன": 3723,
      "னில்": 3724,
      "அவை": 3725,
      "த்துறை": 3726,
      "நுட்ப": 3727,
      "விலை": 3728,
      "நிகழ்ச்ச": 3729,
      "சென்னை": 3730,
      "ஆதர": 3731,
      "அக": 3732,
      "னுடைய": 3733,
      "வாக்கு": 3734,
      "ர்ச்ச": 3735,
      "சேவை": 3736,
      "ரிமை": 3737,
      "ப்படவில்லை": 3738,
      "ட்டிய": 3739,
      "மூல": 3740,
      "படை": 3741,
      "இன்று": 3742,
      "ப்பின": 3743,
      "புது": 3744,
      "தின": 3745,
      "சோதனை": 3746,
      "எடுக்க": 3747,
      "க்கோ": 3748,
      "வாய்ப்பு": 3749,
      "இந்": 3750,
      "வேல": 3751,
      "பத": 3752,
      "கடை": 3753,
      "சிறந்த": 3754,
      "்களுக்கு": 3755,
      "சம்பவம்": 3756,
      "வங்கி": 3757,
      "தெரிவித்துள்ளார்": 3758,
      "றவு": 3759,
      "றும்": 3760,
      "ஹா": 3761,
      "பட்டு": 3762,
      "நிறுவனம்": 3763,
      "தேர்வு": 3764,
      "ட்க": 3765,
      "அதே": 3766,
      "கிராம": 3767,
      "வாய்": 3768,
      "தெரிவித்தார்": 3769,
      "11": 3770,
      "அங்க": 3771,
      "ட்டர்": 3772,
      "செய்யும்": 3773,
      "கெ": 3774,
      "மல": 3775,
      "நடந்து": 3776,
      "அவருடைய": 3777,
      "சக்த": 3778,
      "ர்களின்": 3779,
      "நகர": 3780,
      "திட்டம்": 3781,
      "முன்னாள்": 3782,
      "இதனை": 3783,
      "30": 3784,
      "இந்தியாவின்": 3785,
      "உடல்": 3786,
      "ங்கை": 3787,
      "உணவு": 3788,
      "மில்": 3789,
      "விவசாயி": 3790,
      "குடி": 3791,
      "அவர்களுக்கு": 3792,
      "விஜ": 3793,
      "அடுத்த": 3794,
      "என்னை": 3795,
      "கட்ச": 3796,
      "நடித்து": 3797,
      "இவ்வாறு": 3798,
      "வடி": 3799,
      "வட": 3800,
      "மேற்கொள்ள": 3801,
      "பங்கே": 3802,
      "ால": 3803,
      "தாரண": 3804,
      "ஏற்க": 3805,
      "ராம்": 3806,
      "பால": 3807,
      "ங்கில": 3808,
      "க்கெ": 3809,
      "ளம்": 3810,
      "சன": 3811,
      "ஸ்க": 3812,
      "an": 3813,
      "்கிறது": 3814,
      "வளர்ச்சி": 3815,
      "இன்": 3816,
      "மக்கு": 3817,
      "ீர்": 3818,
      "படுத்த": 3819,
      "போக்கு": 3820,
      "சிறப்பு": 3821,
      "உயர்": 3822,
      "சுற்று": 3823,
      "சர்வ": 3824,
      "ாடு": 3825,
      "மைப்பு": 3826,
      "சாலை": 3827,
      "பெண்": 3828,
      "விற்ப": 3829,
      "ையாக": 3830,
      "கொடுத்த": 3831,
      "மாட்ட": 3832,
      "மழை": 3833,
      "பேசி": 3834,
      "அவற்ற": 3835,
      "த்திலும்": 3836,
      "ஊழிய": 3837,
      "கர": 3838,
      "முடைய": 3839,
      "வசதி": 3840,
      "ஆகியவற்ற": 3841,
      "ிருந்தார்": 3842,
      "கொள்": 3843,
      "சரிய": 3844,
      "ரூபாய்": 3845,
      "ின": 3846,
      "ஒருவர்": 3847,
      "16": 3848,
      "in": 3849,
      "வைர": 3850,
      "மத": 3851,
      "இறு": 3852,
      "பிரா": 3853,
      "தேர்தல்": 3854,
      "ஒப்பு": 3855,
      "முழுவதும்": 3856,
      "ற்கும்": 3857,
      "ரக": 3858,
      "ழுது": 3859,
      "விழா": 3860,
      "ளு": 3861,
      "கடி": 3862,
      "விஷய": 3863,
      "்களில்": 3864,
      "பார்த்த": 3865,
      "ஏற்று": 3866,
      "ாா்": 3867,
      "ாள்": 3868,
      "அடைய": 3869,
      "டாக": 3870,
      "சகோ": 3871,
      "கல்ல": 3872,
      "ண்ப": 3873,
      "மாத": 3874,
      "மனு": 3875,
      "நிர்வாக": 3876,
      "),": 3877,
      "சிக": 3878,
      "வராக": 3879,
      "பயன்படுத்த": 3880,
      "இப்படி": 3881,
      "ருக்கும்": 3882,
      "மானது": 3883,
      "க்கப்படும்": 3884,
      "க்கல்": 3885,
      "வேண்டு": 3886,
      "இஸ்": 3887,
      "வைத்த": 3888,
      "உல": 3889,
      "ஷா": 3890,
      "வீடு": 3891,
      "வார்த்தை": 3892,
      "சிரிய": 3893,
      "சன்": 3894,
      "வகு": 3895,
      "எல்": 3896,
      "கார": 3897,
      "க்கவில்லை": 3898,
      "அவர்களை": 3899,
      "பீ": 3900,
      "அளவில்": 3901,
      "புற": 3902,
      "தலைமை": 3903,
      "உச்ச": 3904,
      "13": 3905,
      "er": 3906,
      "17": 3907,
      "தொலை": 3908,
      "புத்த": 3909,
      "ீர்கள்": 3910,
      "வகை": 3911,
      "ப்பிய": 3912,
      "வல்": 3913,
      "ேற்ற": 3914,
      "உங்களுக்கு": 3915,
      "மேற்கொண்டு": 3916,
      "அம": 3917,
      "த்துள்ளது": 3918,
      "வாதி": 3919,
      "தயாரி": 3920,
      "ப்பான": 3921,
      "காரணம்": 3922,
      "ிலுள்ள": 3923,
      "இரண்டா": 3924,
      "கடு": 3925,
      "த்தால்": 3926,
      "இதையடுத்து": 3927,
      "தமிழ்நாடு": 3928,
      "தொழில்நுட்ப": 3929,
      "பைபிள்": 3930,
      "பார்": 3931,
      "சென்று": 3932,
      "நாட்டில்": 3933,
      "on": 3934,
      "பிரச்சி": 3935,
      "25": 3936,
      "கீழ": 3937,
      "நாட்டின்": 3938,
      "ரேந்திர": 3939,
      "உட்ப": 3940,
      "த்தைப்": 3941,
      "நெரு": 3942,
      "ஜ்": 3943,
      "நடந்த": 3944,
      "அட": 3945,
      "பிள்ளை": 3946,
      "ரொ": 3947,
      "சுவா": 3948,
      "மாகும்": 3949,
      "போல்": 3950,
      "பயிற்சி": 3951,
      "ியல்": 3952,
      "பொலிஸார்": 3953,
      "இணைய": 3954,
      "சுகா": 3955,
      "ஆய்வு": 3956,
      "விரைவில்": 3957,
      "சிங்": 3958,
      "களாக": 3959,
      "விரி": 3960,
      "தரி": 3961,
      "சாக": 3962,
      "மட்டும்": 3963,
      "இயக்க": 3964,
      "அடிப்ப": 3965,
      "ப்பின்": 3966,
      "செய்யப்பட்டு": 3967,
      "மருத்துவமனை": 3968,
      "ஹி": 3969,
      "எடு": 3970,
      "அன்": 3971,
      "கலை": 3972,
      "நடைபெற்ற": 3973,
      "பாரா": 3974,
      "தேவ": 3975,
      "ப்பூ": 3976,
      "ஒரே": 3977,
      "யெகோவாவின்": 3978,
      "நிகழ்": 3979,
      "நரேந்திர": 3980,
      "சர்வதேச": 3981,
      "த்தைக்": 3982,
      "பொருட": 3983,
      "உங்கள": 3984,
      "அப்ப": 3985,
      "டே": 3986,
      "ப்படிய": 3987,
      "க்கவும்": 3988,
      "விற்கு": 3989,
      "வளவு": 3990,
      "ஒது": 3991,
      "திரைப்பட": 3992,
      "னாலும்": 3993,
      "த்தும்": 3994,
      "மரண": 3995,
      "சமா": 3996,
      "தீர்": 3997,
      "யிர": 3998,
      "மணி": 3999,
      "ாளர்கள்": 4000,
      "வங்க": 4001,
      "மொத்த": 4002,
      "காவல": 4003,
      "மருத்துவமன": 4004,
      "மேற்பட்ட": 4005,
      "சர": 4006,
      "ுள்ளனர்": 4007,
      "ாத": 4008,
      "கூடு": 4009,
      "விளை": 4010,
      "இளை": 4011,
      "புரிந்து": 4012,
      "வதில்லை": 4013,
      "பங்கு": 4014,
      "வார்கள்": 4015,
      "பக்க": 4016,
      "இதுகுறித்து": 4017,
      "அவசிய": 4018,
      "திக": 4019,
      "தற்கு": 4020,
      "இங்கு": 4021,
      "காட்டு": 4022,
      "கடவுளுடைய": 4023,
      "இல்ல": 4024,
      "சுமார்": 4025,
      "ஜோ": 4026,
      "நமக்கு": 4027,
      "அதிகார": 4028,
      "எதிர்க": 4029,
      "படத்தில்": 4030,
      "க்கப்படு": 4031,
      "டியோ": 4032,
      "தாய": 4033,
      "ஓர்": 4034,
      "உற்பத்தி": 4035,
      "ிருக்கிறார்": 4036,
      "மறை": 4037,
      "மில்லை": 4038,
      "எதிராக": 4039,
      "ந்துள்ளது": 4040,
      "ந்திய": 4041,
      "உறுப்பின": 4042,
      "நிறைவே": 4043,
      "வருகின்றன": 4044,
      "ஞ்சா": 4045,
      "ந்த்": 4046,
      "ாகிய": 4047,
      "எதுவும்": 4048,
      "ன்ஸ்": 4049,
      "வேக": 4050,
      "ரம்ப": 4051,
      "ருந்து": 4052,
      "ெட்": 4053,
      "வதற்கான": 4054,
      "இளைஞ": 4055,
      "திர": 4056,
      "வயது": 4057,
      "உண்மை": 4058,
      "வால்": 4059,
      "தில்லை": 4060,
      "மகிழ்ச்ச": 4061,
      "க்கே": 4062,
      "சல்": 4063,
      "ரோனா": 4064,
      "வியல்": 4065,
      "தேதி": 4066,
      "ஆப": 4067,
      "வாகன": 4068,
      "கொள்க": 4069,
      "வர்களை": 4070,
      "ரசு": 4071,
      "உள்ளனர்": 4072,
      "பேச": 4073,
      "தண்ண": 4074,
      "வண": 4075,
      "த்தியா": 4076,
      "மதிப்ப": 4077,
      "கொலை": 4078,
      "தந்த": 4079,
      "மர்": 4080,
      "மேம்": 4081,
      "சொல": 4082,
      "உள": 4083,
      "லாள": 4084,
      "தடு": 4085,
      "மடைந்த": 4086,
      "வந்தது": 4087,
      "மேம்ப": 4088,
      "மருத்துவமனையில்": 4089,
      "அனுப": 4090,
      "முதல்வர்": 4091,
      "ரம்பி": 4092,
      "க்கிறார்": 4093,
      "குறிப்பிடத்தக்க": 4094,
      "ன்கள்": 4095,
      "போக்குவர": 4096,
      "காஷ்": 4097,
      "இந்தக்": 4098,
      "திலும்": 4099,
      "முள்ள": 4100,
      "வர்த்த": 4101,
      "கிழ": 4102,
      "த்துக்": 4103,
      "அதிகரி": 4104,
      "சீனா": 4105,
      "டெல்லி": 4106,
      "மிகு": 4107,
      "இழ": 4108,
      "கேட்டு": 4109,
      "வாழ்க்கை": 4110,
      "அதனால்": 4111,
      "லுக்கு": 4112,
      "தொடர்பான": 4113,
      "கேட்ட": 4114,
      "த்துவ": 4115,
      "லர்": 4116,
      "சொல்": 4117,
      "பலி": 4118,
      "மர": 4119,
      "தாகவும்": 4120,
      "பாகிஸ்தான்": 4121,
      "முறையில்": 4122,
      "எரி": 4123,
      "மகா": 4124,
      "100": 4125,
      "இடையே": 4126,
      "லின்": 4127,
      "்த்து": 4128,
      "ரிடம்": 4129,
      "பிரதேச": 4130,
      "ப்புகள்": 4131,
      "ெல்லாம்": 4132,
      "நண்ப": 4133,
      "பட்ச": 4134,
      "கிறோம்": 4135,
      "வின": 4136,
      "வருகிறார்": 4137,
      "விவர": 4138,
      "பெறும்": 4139,
      "தெலு": 4140,
      "களிலும்": 4141,
      "கல்லூ": 4142,
      "தங்கள": 4143,
      "ண்ட்": 4144,
      "பேச்சு": 4145,
      "வரலா": 4146,
      "ஆலோ": 4147,
      "வெளியே": 4148,
      "்கலை": 4149,
      "ஆரம்பி": 4150,
      "ஃப்": 4151,
      "நிதிய": 4152,
      "ட்டத்தில்": 4153,
      "களைக்": 4154,
      "பாட்டு": 4155,
      "வான்": 4156,
      "சதவீத": 4157,
      "தன்ன": 4158,
      "காந்தி": 4159,
      "வோம்": 4160,
      "ஏன": 4161,
      "த்தான": 4162,
      "சக்தி": 4163,
      "ரிக்கை": 4164,
      "ஒப்பந்த": 4165,
      "ர்த்தி": 4166,
      "நமது": 4167,
      "வருக்கும்": 4168,
      "னே": 4169,
      "ன்றால்": 4170,
      "ல்களை": 4171,
      "விற்பனை": 4172,
      "ஷி": 4173,
      "at": 4174,
      "வதற்காக": 4175,
      "்துறை": 4176,
      "ினும்": 4177,
      "கால்": 4178,
      "ர்களும்": 4179,
      "ிட்டு": 4180,
      "ிலோ": 4181,
      "களைப்": 4182,
      "ரசிக": 4183,
      "நாயக": 4184,
      "தெளி": 4185,
      "ஜே": 4186,
      "ஏற்பட்டு": 4187,
      "எனினும்": 4188,
      "சுகாதார": 4189,
      "ன்மை": 4190,
      "இவை": 4191,
      "்கிறார்": 4192,
      "ண்மை": 4193,
      "புகை": 4194,
      "கேர": 4195,
      "்கூ": 4196,
      "மேல": 4197,
      "கின்றனர்": 4198,
      "தமிழ": 4199,
      "க்களை": 4200,
      "கொரோனா": 4201,
      "பல்கலை": 4202,
      "தீர்மான": 4203,
      "மாதி": 4204,
      "ஆராய": 4205,
      "ஜனா": 4206,
      "24": 4207,
      "ப்த": 4208,
      "ar": 4209,
      "எனது": 4210,
      "ஸ்திர": 4211,
      "மைச்ச": 4212,
      "உடனடியாக": 4213,
      "ரயில்": 4214,
      "த்தின": 4215,
      "பதில்": 4216,
      "ஆணைய": 4217,
      "பேசிய": 4218,
      "சாட்சி": 4219,
      "த்தொ": 4220,
      "நடிகர்": 4221,
      "வியா": 4222,
      "அரசின்": 4223,
      "முடியவில்லை": 4224,
      "வலை": 4225,
      "ப்பதற்கு": 4226,
      "நோய்": 4227,
      "நர்": 4228,
      "ரல்": 4229,
      "பணிகள்": 4230,
      "al": 4231,
      "நம்பிக்கை": 4232,
      "ியும்": 4233,
      "ட்ரோ": 4234,
      "ஆகியோர்": 4235,
      "ர்ட்": 4236,
      "—⁠": 4237,
      "நோய": 4238,
      "ட்டா": 4239,
      "ஆண்டில்": 4240,
      "எண்ணிக்கை": 4241,
      "நிச்ச": 4242,
      "வழங்கு": 4243,
      "பிரிவு": 4244,
      "கிரிக்க": 4245,
      "பிரச்சினை": 4246,
      "ஆயிர": 4247,
      "கூட்டு": 4248,
      "தேவைய": 4249,
      "ெய": 4250,
      "தடை": 4251,
      "...": 4252,
      "முதலீ": 4253,
      "தொகுதி": 4254,
      "விழு": 4255,
      "வதில்": 4256,
      "ப்படையில்": 4257,
      "பயன்படு": 4258,
      "அனைவரும்": 4259,
      "ங்களிலும்": 4260,
      "வரவே": 4261,
      "கண்கா": 4262,
      "கூடிய": 4263,
      "உடன்": 4264,
      "க்கண": 4265,
      "ங்களையும்": 4266,
      "னவே": 4267,
      "விபத்து": 4268,
      "உர": 4269,
      "பகுதியில்": 4270,
      "en": 4271,
      "ெய்": 4272,
      "தரு": 4273,
      "வீடியோ": 4274,
      "டைந்து": 4275,
      "விருது": 4276,
      "கிடைய": 4277,
      "வியை": 4278,
      "ுக்காக": 4279,
      "ஞான": 4280,
      "நேரம்": 4281,
      "அதிகாரிகள்": 4282,
      "ராஜா": 4283,
      "விரும்பு": 4284,
      "வர்களின்": 4285,
      "தைய": 4286,
      "அதனை": 4287,
      "னார்கள்": 4288,
      "வருக்கு": 4289,
      "சனை": 4290,
      "நியா": 4291,
      "இருவரும்": 4292,
      "க்கார": 4293,
      "பரு": 4294,
      "களுக்கும்": 4295,
      "22": 4296,
      "க்ஸ்": 4297,
      "குடியரசு": 4298,
      "அவள்": 4299,
      "ற்றா": 4300,
      "உரிமை": 4301,
      "ஜனாதி": 4302,
      "னின்": 4303,
      "த்திரி": 4304,
      "க்கூடிய": 4305,
      "சொந்த": 4306,
      "உயிரிழந்த": 4307,
      "சில்": 4308,
      "கூறியுள்ளார்": 4309,
      "இடங்களில்": 4310,
      "ப்பட்டன": 4311,
      "பயணி": 4312,
      "வருட": 4313,
      "சேர்த்து": 4314,
      "கிடையாது": 4315,
      "40": 4316,
      "கடவுள்": 4317,
      "நடைபெற்று": 4318,
      "இடை": 4319,
      "்பு": 4320,
      "பெண்கள்": 4321,
      "21": 4322,
      "பேசு": 4323,
      "அப்படிய": 4324,
      "பால்": 4325,
      "இத்தி": 4326,
      "வேண்டாம்": 4327,
      "அளவு": 4328,
      "ஷன்": 4329,
      "இப்ப": 4330,
      "மம்": 4331,
      "அடிப்படையில்": 4332,
      "சட்டம்": 4333,
      "நீதிமன்றம்": 4334,
      "தவற": 4335,
      "ஆரம்ப": 4336,
      "ாகி": 4337,
      "ர்களா": 4338,
      "திரும்ப": 4339,
      "சிக்க": 4340,
      "ப்படுத்தி": 4341,
      "இராணுவ": 4342,
      "பார்த்து": 4343,
      "குறைந்த": 4344,
      "சகோதர": 4345,
      "்களின்": 4346,
      "அணு": 4347,
      "கொண்டனர்": 4348,
      "ராள": 4349,
      "மாய": 4350,
      "பிரதி": 4351,
      "ஆசிரிய": 4352,
      "கடும்": 4353,
      "பேர": 4354,
      "பயன்": 4355,
      "விட்டார்": 4356,
      "்டர்": 4357,
      "நிறைய": 4358,
      "மண்ட": 4359,
      "முகம்": 4360,
      "னுக்கு": 4361,
      "தய": 4362,
      "சபை": 4363,
      "நப": 4364,
      "சந்தே": 4365,
      "கொடுக்க": 4366,
      "போர்": 4367,
      "ர்க்": 4368,
      "விஜய்": 4369,
      "பவு": 4370,
      "எதிர்ப்பு": 4371,
      "மிய": 4372,
      "கூடாது": 4373,
      "அழு": 4374,
      "போக்குவரத்து": 4375,
      "இத்த": 4376,
      "முக்கியமான": 4377,
      "ப்பதி": 4378,
      "es": 4379,
      "ாமல்": 4380,
      "ஒத்து": 4381,
      "தென்": 4382,
      "க்கிர": 4383,
      "உதாரண": 4384,
      "தோல்": 4385,
      "மேற்கு": 4386,
      "படத்தின்": 4387,
      "கணி": 4388,
      "செய்தனர்": 4389,
      "த்தன": 4390,
      "மக்களுக்கு": 4391,
      "சினி": 4392,
      "ராகு": 4393,
      "நான்கு": 4394,
      "சமய": 4395,
      "ஏற்படுத்திய": 4396,
      "மதிப்பு": 4397,
      "சியா": 4398,
      "தாய்": 4399,
      "ழல்": 4400,
      "கவலை": 4401,
      "க்கையில்": 4402,
      "கண்ண": 4403,
      "பெயர்": 4404,
      "or": 4405,
      "போலீஸ": 4406,
      "வீட்டு": 4407,
      "மோச": 4408,
      "எல்ல": 4409,
      "போதும்": 4410,
      "சமீ": 4411,
      "சந்தோ": 4412,
      "மலை": 4413,
      "ஆட்சி": 4414,
      "தக": 4415,
      "கட்டுப்பா": 4416,
      "்களும்": 4417,
      "தொடர்பு": 4418,
      "பரிசு": 4419,
      "அடையாள": 4420,
      "குறிப்பிடத்தக்கது": 4421,
      "பிரபல": 4422,
      "ஆறு": 4423,
      "போட்டியில்": 4424,
      "ரால்": 4425,
      "நடிகை": 4426,
      "உண்டு": 4427,
      "ஒழு": 4428,
      "கதை": 4429,
      "ப்படுகின்றன": 4430,
      "சார்ந்த": 4431,
      "ஆராய்ச்ச": 4432,
      "ப்பே": 4433,
      "எச்ச": 4434,
      "கர்நாட": 4435,
      "காரிய": 4436,
      "பரிசோதனை": 4437,
      "மாணவர்கள்": 4438,
      "லியன்": 4439,
      "முதலில்": 4440,
      "தையும்": 4441,
      "வாழ்த்து": 4442,
      "ாளு": 4443,
      "்கிறேன்": 4444,
      "எதிரான": 4445,
      "மனைவி": 4446,
      "மாற": 4447,
      "ஆயு": 4448,
      "இசை": 4449,
      "கிடைக்கும்": 4450,
      "போக": 4451,
      "அறிவு": 4452,
      "வெளியிட": 4453,
      "பிடிக்க": 4454,
      "நோக்க": 4455,
      "வேளா": 4456,
      "தியில்": 4457,
      "அதிகம்": 4458,
      "ப்பிடி": 4459,
      "அதிகரித்து": 4460,
      "அந்தப்": 4461,
      "ணா": 4462,
      "ன்றி": 4463,
      "காஷ்மீ": 4464,
      "தெரியா": 4465,
      "ங்கர": 4466,
      "பல்கலைக்க": 4467,
      "எளி": 4468,
      "ைப்": 4469,
      "இணைந்து": 4470,
      "சமீப": 4471,
      "க்கப்பட": 4472,
      "யாரும்": 4473,
      "ஜெய": 4474,
      "புகார்": 4475,
      "வருமான": 4476,
      "அறிக்கை": 4477,
      "த்திலிருந்து": 4478,
      "ியான": 4479,
      "ரிட": 4480,
      "தங்க": 4481,
      "ுமா": 4482,
      "கட்டி": 4483,
      "ப்பிர": 4484,
      "ஏற்பட்டது": 4485,
      "ற்பு": 4486,
      "குழந்தைகள்": 4487,
      "சினிமா": 4488,
      "ெழு": 4489,
      "சைய": 4490,
      "தியான": 4491,
      "க்குப்": 4492,
      "ராட்சி": 4493,
      "ொழுது": 4494,
      "இந்தத்": 4495,
      "ஆட்ச": 4496,
      "பம்": 4497,
      "நன்றி": 4498,
      "சார்ப": 4499,
      "ூன்": 4500,
      "சேர்க்க": 4501,
      "கல்லூரி": 4502,
      "சம்பந்த": 4503,
      "கிரிக்கெட்": 4504,
      "குறிப்பிட்ட": 4505,
      "காயமடைந்த": 4506,
      "வுகள்": 4507,
      "வேன்": 4508,
      "தொடர்பில்": 4509,
      "ப்போதும்": 4510,
      "ெடு": 4511,
      "ப்பும்": 4512,
      "ிலே": 4513,
      "அநே": 4514,
      "எதிர்பார்க்க": 4515,
      "ிற்": 4516,
      "வுடன்": 4517,
      "தனிய": 4518,
      "வரைய": 4519,
      "ாய": 4520,
      "தந்திர": 4521,
      "ஸ்ரீ": 4522,
      "பயங்கர": 4523,
      "மக்களின்": 4524,
      "பிறந்த": 4525,
      "அதிகமாக": 4526,
      "போன": 4527,
      "2018": 4528,
      "ையாள": 4529,
      "மூன்ற": 4530,
      "எங்கள்": 4531,
      "பெற்றோ": 4532,
      "காவல்": 4533,
      "மிக்க": 4534,
      "மாற்று": 4535,
      "இப்போது": 4536,
      "லியா": 4537,
      "வெள்ள": 4538,
      "கேட்க": 4539,
      "ாய்": 4540,
      "எங்களுக்கு": 4541,
      "இனி": 4542,
      "தொடங்கி": 4543,
      "்கூட": 4544,
      "தாக்குதல": 4545,
      "சிலர்": 4546,
      "ஆன்": 4547,
      "ஜனாதிபதி": 4548,
      "நீண்ட": 4549,
      "தேர்தலில்": 4550,
      "தெரியவில்லை": 4551,
      "முதன்": 4552,
      "இறுதி": 4553,
      "அழி": 4554,
      "வடிவ": 4555,
      "மான்": 4556,
      "பகுதிகளில்": 4557,
      "ஆட்ட": 4558,
      "கற்ப": 4559,
      "ஹ்": 4560,
      "60": 4561,
      "199": 4562,
      "பலர்": 4563,
      "வார": 4564,
      "ஏனெ": 4565,
      "பதவி": 4566,
      "அனுப்பி": 4567,
      "காட்ட": 4568,
      "வித்தியா": 4569,
      "உள்ளார்": 4570,
      "ள்ளதாக": 4571,
      "ஞ்சி": 4572,
      "நேரத்தில்": 4573,
      "இவர்கள்": 4574,
      "பணம்": 4575,
      "துரு": 4576,
      "நிகழ்ச்சி": 4577,
      "உற": 4578,
      "அவர்களின்": 4579,
      "ஜீ": 4580,
      "டல்": 4581,
      "ைக்": 4582,
      "ஜனநாயக": 4583,
      "உயிரிழ": 4584,
      "ஆகவே": 4585,
      "புர": 4586,
      "ப்பட்டுள்ளன": 4587,
      "ஸ்திரே": 4588,
      "கவனி": 4589,
      "ஒருங்கி": 4590,
      "காட்சி": 4591,
      "தெலுங்கு": 4592,
      "இலங்கை": 4593,
      "விளையாட்டு": 4594,
      "மாதம்": 4595,
      "களுடன்": 4596,
      "அன்று": 4597,
      "பிரே": 4598,
      "ங்களாக": 4599,
      "ஊட": 4600,
      "மைச்சர்": 4601,
      "நியாய": 4602,
      "நாடாளு": 4603,
      "ஒருங்கிணை": 4604,
      "காலம்": 4605,
      "குதியில்": 4606,
      "நியூ": 4607,
      "்ட்": 4608,
      "அப்போ": 4609,
      "நாடாளுமன்ற": 4610,
      "வெளியிட்டு": 4611,
      "உன்": 4612,
      "கற்று": 4613,
      "படிய": 4614,
      "இவர": 4615,
      "இருந்தார்": 4616,
      "்பி": 4617,
      "அமைச்சகம்": 4618,
      "அடைந்த": 4619,
      "பணியா": 4620,
      "500": 4621,
      "விடும்": 4622,
      "ம்தான்": 4623,
      "மணம்": 4624,
      "ாந்து": 4625,
      "செய்தார்": 4626,
      "பண்ண": 4627,
      "ஐரோ": 4628,
      "நம்ப": 4629,
      "மய": 4630,
      "வா்": 4631,
      "குறு": 4632,
      "உள்": 4633,
      "கடன்": 4634,
      "ராகுல்": 4635,
      "த்துள்ளார்": 4636,
      "சிவ": 4637,
      "கைப்ப": 4638,
      "கர்த்த": 4639,
      "புத்தக": 4640,
      "சார": 4641,
      "அடிக்க": 4642,
      "வலிய": 4643,
      "அக்க": 4644,
      "ப்புற": 4645,
      "காலத்தில்": 4646,
      "எல்லாம்": 4647,
      "மீன்": 4648,
      "ஏராள": 4649,
      "அதிபர்": 4650,
      "பெரும்பா": 4651,
      "திட்டமி": 4652,
      "என்றால்": 4653,
      "வீன": 4654,
      "துறைய": 4655,
      "பொருள்": 4656,
      "மாற்றம்": 4657,
      "விட்": 4658,
      "தலைமைய": 4659,
      "காயம்": 4660,
      "கவன": 4661,
      "சந்தோஷ": 4662,
      "முடியாத": 4663,
      "செய்தது": 4664,
      "மிருந்து": 4665,
      "இன": 4666,
      "க்குரிய": 4667,
      "ரொம்ப": 4668,
      "தெரிவித்த": 4669,
      "திறன்": 4670,
      "க்கணக்கான": 4671,
      "வல்ல": 4672,
      "பொருள": 4673,
      "சிறிய": 4674,
      "வென்ற": 4675,
      "விண்ண": 4676,
      "ிறது": 4677,
      "உண்மைய": 4678,
      "புகைப்பட": 4679,
      "சூழ்": 4680,
      "ஆரோ": 4681,
      "தண்ணீர்": 4682,
      "கண்காணி": 4683,
      "நிறுவனங்கள்": 4684,
      "எங்கள": 4685,
      "மிகப்பெ": 4686,
      "க்கொண்டு": 4687,
      "நம்முடைய": 4688,
      "ப்பர்": 4689,
      "தொகை": 4690,
      "தனியார்": 4691,
      "பகி": 4692,
      "த்தைச்": 4693,
      "நன": 4694,
      "தேவையான": 4695,
      "எவ்வாறு": 4696,
      "சொல்லி": 4697,
      "ய்வ": 4698,
      "பாதிக்கப்பட்ட": 4699,
      "இள": 4700,
      "இன்ற": 4701,
      "அறிமுக": 4702,
      "பெற்றது": 4703,
      "களி": 4704,
      "இல்லாத": 4705,
      "விழி": 4706,
      "த்திற்கும்": 4707,
      "நீதிமன்றத்தில்": 4708,
      "23": 4709,
      "ஆகியவை": 4710,
      "ஒதுக்க": 4711,
      "முன்பு": 4712,
      "த்தினர்": 4713,
      "ாகவும்": 4714,
      "ஆன": 4715,
      "இடைய": 4716,
      "ஒளி": 4717,
      "ுறு": 4718,
      "படத்தை": 4719,
      "பின்ன": 4720,
      "கழி": 4721,
      "ாண": 4722,
      "எடுத்த": 4723,
      "வேட்ப": 4724,
      "இதே": 4725,
      "ஏற்படுத்த": 4726,
      "அப்பா": 4727,
      "தேர்ந்த": 4728,
      "மாய்": 4729,
      "மல்ல": 4730,
      "அதிகமான": 4731,
      "கதா": 4732,
      "இரண்டாவது": 4733,
      "நகர்": 4734,
      "துவ": 4735,
      "அலுவல": 4736,
      "டோ": 4737,
      "ரவை": 4738,
      "அறிவியல்": 4739,
      "ஹெ": 4740,
      "இருப்பி": 4741,
      "பாலி": 4742,
      "ஆனாலும்": 4743,
      "பெட்ரோ": 4744,
      "சதவீதம்": 4745,
      "குண": 4746,
      "வாசி": 4747,
      "விசாரணைகளை": 4748,
      "போய்": 4749,
      "ங்களைப்": 4750,
      "னியா": 4751,
      "இந்நிலையில்": 4752,
      "ஐக்கிய": 4753,
      "ஒத்துழை": 4754,
      "வகைய": 4755,
      "வழக்க": 4756,
      "நடத்திய": 4757,
      "ஆங்கில": 4758,
      "வரையும்": 4759,
      "இங்கில": 4760,
      "ஆகியோ": 4761,
      "அரசாங்கம்": 4762,
      "கிலோ": 4763,
      "வலு": 4764,
      "வெடி": 4765,
      "முறையாக": 4766,
      "ஞ்சு": 4767,
      "வாரிய": 4768,
      "சுதந்திர": 4769,
      "செயல்படுத்த": 4770,
      "மாவட்டம்": 4771,
      "ப்படுத்தும்": 4772,
      "அன்பு": 4773,
      "செய்யப்பட்டுள்ளது": 4774,
      "பயன்படுத்தி": 4775,
      "ிருக்கிறார்கள்": 4776,
      "விவசாயிகள்": 4777,
      "சொன்னார்": 4778,
      "ருங்கள்": 4779,
      "க்குள்": 4780,
      "கலா": 4781,
      "்கிறார்கள்": 4782,
      "பதில": 4783,
      "விசுவா": 4784,
      "கொள்கை": 4785,
      "வாக்க": 4786,
      "மக": 4787,
      "ஊடக": 4788,
      "கொடுத்து": 4789,
      "ஏராளமான": 4790,
      "ஆதரவு": 4791,
      "ஈடுபட்ட": 4792,
      "கிரு": 4793,
      "ஏற்பாடு": 4794,
      "்துறைய": 4795,
      "ஏற்படும்": 4796,
      "தண்ட": 4797,
      "ஆலோசனை": 4798,
      "குமா": 4799,
      "மகன்": 4800,
      "உண்மையில்": 4801,
      "செயல": 4802,
      "யின்": 4803,
      "அவர்களுடைய": 4804,
      "ந்தா": 4805,
      "பக்த": 4806,
      "பயண": 4807,
      "திருமணம்": 4808,
      "அவசியம்": 4809,
      "மேம்பாட்டு": 4810,
      "ஆராய்ச்சி": 4811,
      "மருந்து": 4812,
      "உருவாக": 4813,
      "70": 4814,
      "க்கப்படுகிறது": 4815,
      "தற்காக": 4816,
      "சால": 4817,
      "இம்": 4818,
      "ிருந்தனர்": 4819,
      "வலியுறு": 4820,
      "எண்ணெய்": 4821,
      "ியது": 4822,
      "மும்பை": 4823,
      "போலீஸ்": 4824,
      "இருக்கின்றன": 4825,
      "லோக": 4826,
      "லாளர்": 4827,
      "உதவிய": 4828,
      "நெருக்க": 4829,
      "போராட்ட": 4830,
      "அறிந்த": 4831,
      "கொண்டா": 4832,
      "றையை": 4833,
      "தாரம்": 4834,
      "ஆஸ்திரே": 4835,
      "முதலா": 4836,
      "வர்த்தக": 4837,
      "அடிப்படை": 4838,
      "கொல்ல": 4839,
      "நோக்கி": 4840,
      "தவிர": 4841,
      "கின்றது": 4842,
      "திருமண": 4843,
      "வணி": 4844,
      "நிலைமை": 4845,
      "பாவ": 4846,
      "பிரச்": 4847,
      "யில": 4848,
      "தர்": 4849,
      "ப்பூர்வ": 4850,
      "லிருந்து": 4851,
      "அம்மா": 4852,
      "க்கொள்": 4853,
      "வாள": 4854,
      "பிரச்ச": 4855,
      "சுய": 4856,
      "திட்டத்தின்": 4857,
      "நிறுத்த": 4858,
      "ராஷ்ட": 4859,
      "அலுவலக": 4860,
      "த்துப்": 4861,
      "நிர": 4862,
      "தீர்க்க": 4863,
      "மாநிலத்தில்": 4864,
      "வகி": 4865,
      "இவற்ற": 4866,
      "28": 4867,
      "உலகம்": 4868,
      "ஆர்வ": 4869,
      "செலவு": 4870,
      "பாதிப்பு": 4871,
      "ளவு": 4872,
      "ஆள": 4873,
      "ானா": 4874,
      "2020": 4875,
      "முற்ற": 4876,
      "ல்க": 4877,
      "ந்துள்ள": 4878,
      "சிறி": 4879,
      "ஒப்புதல்": 4880,
      "விருப்ப": 4881,
      "பங்கேற்ற": 4882,
      "கொஞ்ச": 4883,
      "என்னுடைய": 4884,
      "இடத்தில்": 4885,
      "நாத்": 4886,
      "நடந்தது": 4887,
      "மருத்துவமனைக்கு": 4888,
      "அவள": 4889,
      "குறிப்பிட்டு": 4890,
      "செய்வது": 4891,
      "போட்டிய": 4892,
      "கூட்டணி": 4893,
      "ாக்": 4894,
      "முன்னேற்ற": 4895,
      "மேலா": 4896,
      "இச்ச": 4897,
      "நீதிபதி": 4898,
      "am": 4899,
      "ஐந்து": 4900,
      "ம்கூட": 4901,
      "தன்னுடைய": 4902,
      "வித்தியாச": 4903,
      "ஆளு": 4904,
      "மாகவும்": 4905,
      "கட்சியின்": 4906,
      "எழுதிய": 4907,
      "படிக்க": 4908,
      "வரா": 4909,
      "உரிய": 4910,
      "ஆரோக்கிய": 4911,
      "மிகுந்த": 4912,
      "கண்டி": 4913,
      "பரபர": 4914,
      "பயன்படுத்து": 4915,
      "வைரஸ்": 4916,
      "செலுத்த": 4917,
      "தீய": 4918,
      "2017": 4919,
      "இருப்பினும்": 4920,
      "லாத": 4921,
      "சமு": 4922,
      "னான்": 4923,
      "கிழக்கு": 4924,
      "ஏற்கனவே": 4925,
      "சேர்ந்து": 4926,
      "நடத்து": 4927,
      "க்கலாம்": 4928,
      "க்காது": 4929,
      "களால்": 4930,
      "அதாவது": 4931,
      "த்துவம்": 4932,
      "மூத்த": 4933,
      "போதிலும்": 4934,
      "சப": 4935,
      "பல்கலைக்கழக": 4936,
      "ழ்த்த": 4937,
      "தாக்குதல்": 4938,
      "தற்கொ": 4939,
      "ப்பதிவு": 4940,
      "இயற்க": 4941,
      "சரியான": 4942,
      "நம்பிக்க": 4943,
      "அப": 4944,
      "அத்த": 4945,
      "ியம்": 4946,
      "it": 4947,
      "அறிய": 4948,
      "பத்திரி": 4949,
      "பட்டிய": 4950,
      "தாக்கல்": 4951,
      "களுக்கான": 4952,
      "தெரிவித்தனர்": 4953,
      "பின்ப": 4954,
      "சிபி": 4955,
      "தெரியும்": 4956,
      "பில்": 4957,
      "போலீஸார்": 4958,
      "நிச்சய": 4959,
      "எவ்வளவு": 4960,
      "ரிப்பு": 4961,
      "கூட்டத்தில்": 4962,
      "மேலதிக": 4963,
      "குமார்": 4964,
      "நடைமுறை": 4965,
      "ீட்டு": 4966,
      "வண்ண": 4967,
      "நன்றாக": 4968,
      "சந்தேக": 4969,
      "க்கின்றன": 4970,
      "கான்": 4971,
      "ங்களைக்": 4972,
      "மற்றொரு": 4973,
      "விகி": 4974,
      "2019": 4975,
      "பன்": 4976,
      "மாறி": 4977,
      "கிள": 4978,
      "வலி": 4979,
      "வீரர்கள்": 4980,
      "கொண்டார்": 4981,
      "விரும்ப": 4982,
      "செயல்படு": 4983,
      "பெரும்பால": 4984,
      "மிகப்பெரிய": 4985,
      "விவகார": 4986,
      "எப்போதும்": 4987,
      "மொத்தம்": 4988,
      "அழ": 4989,
      "இருந்தாலும்": 4990,
      "அதற்கான": 4991,
      "ிரா": 4992,
      "நடித்த": 4993,
      "நிறுவனத்தின்": 4994,
      "சாப்பி": 4995,
      "நடிக்க": 4996,
      "காவல்துறைய": 4997,
      "நாடுகளில்": 4998,
      "தகவல்கள்": 4999,
      "குஜ": 5000,
      "விபத்தில்": 5001,
      "அந்": 5002,
      "னால": 5003,
      "வையும்": 5004,
      "பான": 5005,
      "ic": 5006,
      "ட்டின்": 5007,
      "த்திற்கான": 5008,
      "ஆற்ற": 5009,
      "கூடுதல்": 5010,
      "வழங்கி": 5011,
      "வாதம்": 5012,
      "அர்த்த": 5013,
      "இங்கே": 5014,
      "மண்டல": 5015,
      "கிறிஸ்தவ": 5016,
      "இசைய": 5017,
      "ையோ": 5018,
      "செய்யப்பட்டது": 5019,
      "மாதிரி": 5020,
      "னிடம்": 5021,
      "இருக்கிறார்": 5022,
      "ion": 5023,
      "செல்லும்": 5024,
      "பொருத்த": 5025,
      "புக": 5026,
      "நியமி": 5027,
      "ஆண": 5028,
      "டத்தில்": 5029,
      "க்கிறேன்": 5030,
      "பறி": 5031,
      "னோ": 5032,
      "நாடுகள்": 5033,
      "நிறைவேற்ற": 5034,
      "ியுள்ளது": 5035,
      "வதன்": 5036,
      "இதுதான்": 5037,
      "ண்டை": 5038,
      "ராஜ்ய": 5039,
      "தொடங்கிய": 5040,
      "தள்ள": 5041,
      "தற்கொலை": 5042,
      "ணர்வு": 5043,
      "பார்ப்ப": 5044,
      "இஸ்ர": 5045,
      "மற": 5046,
      "பராம": 5047,
      "பூர்வ": 5048,
      "ப்பட்டுள்ள": 5049,
      "தியை": 5050,
      "த்தே": 5051,
      "வேளை": 5052,
      "்சி": 5053,
      "கத": 5054,
      "த்தைத்": 5055,
      "இந்தச்": 5056,
      "அரச": 5057,
      "தாம்": 5058,
      "போலீஸாா்": 5059,
      "தொழிலாள": 5060,
      "ின்றது": 5061,
      "கிறிஸ்து": 5062,
      "சக": 5063,
      "நம்பு": 5064,
      "அருக": 5065,
      "பணியாள": 5066,
      "உட்பட": 5067,
      "க்கூடாது": 5068,
      "க்கப்பட்டுள்ள": 5069,
      "அச்ச": 5070,
      "பள்ள": 5071,
      "தொகு": 5072,
      "செயல்பட": 5073,
      "காரம்": 5074,
      "பயணம்": 5075,
      "துப்பா": 5076,
      "கிரி": 5077,
      "லெ": 5078,
      "80": 5079,
      "ய்ய": 5080,
      "ரசிகர்கள்": 5081,
      "பந்து": 5082,
      "அளித்த": 5083,
      "st": 5084,
      "ழும்": 5085,
      "அறிமுகம்": 5086,
      "வெளியிட்ட": 5087,
      "பொலிசார்": 5088,
      "இருக்கு": 5089,
      "ரங்க": 5090,
      "வினை": 5091,
      "சென்ன": 5092,
      "அணியின்": 5093,
      "அபி": 5094,
      "ஸி": 5095,
      "டாக்டர்": 5096,
      "பெரும்பாலான": 5097,
      "கும்": 5098,
      "லால்": 5099,
      "ஹோ": 5100,
      "க்குழு": 5101,
      "ிலிருந்த": 5102,
      "கவு": 5103,
      "ரையும்": 5104,
      "்கொ": 5105,
      "எல்லை": 5106,
      "தாகும்": 5107,
      "தவறு": 5108,
      "26": 5109,
      "அந்தக்": 5110,
      "ம்பர்": 5111,
      "நம்மை": 5112,
      "தியா": 5113,
      "ிற்று": 5114,
      "பங்கள": 5115,
      "அநேக": 5116,
      "காட்டி": 5117,
      "நினைவு": 5118,
      "நடவடிக்கைகள்": 5119,
      "த்திலேயே": 5120,
      "விமர்": 5121,
      "ையு": 5122,
      "ப்படுத்திய": 5123,
      "வழங்கும்": 5124,
      "பெட்ரோல்": 5125,
      "-⁠": 5126,
      "கேப்ட": 5127,
      "உதவு": 5128,
      "டெஸ்ட்": 5129,
      "பெண்ண": 5130,
      "ஏற்ற": 5131,
      "நிகழ்ச்சியில்": 5132,
      "நிலையை": 5133,
      "27": 5134,
      "க்கூடும்": 5135,
      "பொதுமக்கள்": 5136,
      "வர்களில்": 5137,
      "நூற்றா": 5138,
      "அடுத்து": 5139,
      "மக்களை": 5140,
      "கன்ன": 5141,
      "மீட்டர்": 5142,
      "ஞ்": 5143,
      "மேற்க": 5144,
      "அனைவருக்கும்": 5145,
      "உரி": 5146,
      "அவற்றை": 5147,
      "உறவு": 5148,
      "தெரிந்து": 5149,
      "திரும்பி": 5150,
      "ரன்": 5151,
      "பெரி": 5152,
      "இவரது": 5153,
      "மாநிலம்": 5154,
      "இசையமை": 5155,
      "வசூ": 5156,
      "குஜரா": 5157,
      "எதிர்ப்ப": 5158,
      "எழுதி": 5159,
      "சமீபத்தில்": 5160,
      "ச்சார": 5161,
      "பேரில்": 5162,
      "உதவும்": 5163,
      "35": 5164,
      "ணு": 5165,
      "தயாராக": 5166,
      "படைய": 5167,
      "மாட": 5168,
      "தவிர்க்க": 5169,
      "வைப்": 5170,
      "2016": 5171,
      "கோரிக்கை": 5172,
      "ன்த": 5173,
      "வர்களாக": 5174,
      "மரியா": 5175,
      "ந்தர": 5176,
      "தொடங்க": 5177,
      "அடிப்படைய": 5178,
      "ஏற்பட்டுள்ளது": 5179,
      "களைத்": 5180,
      "வந்தார்": 5181,
      "ர்களில்": 5182,
      "பெங்கள": 5183,
      "வேண்டுமெ": 5184,
      "உரையா": 5185,
      "வரின்": 5186,
      "ஆதார": 5187,
      "புள்ளி": 5188,
      "நாக": 5189,
      "முதலமைச்சர்": 5190,
      "பஞ்சா": 5191,
      "காத்த": 5192,
      "ிருக்கின்றன": 5193,
      "குவி": 5194,
      "ஒதுக்கீடு": 5195,
      "இருக்கலாம்": 5196,
      "இந்து": 5197,
      "வெப்ப": 5198,
      "பட்": 5199,
      "ரஜி": 5200,
      "இலட்சம்": 5201,
      "முன்னணி": 5202,
      "தொழிற்ச": 5203,
      "குறிப்பாக": 5204,
      "மத்தியில்": 5205,
      "மூலமாக": 5206,
      "பாத்": 5207,
      "க்கிறார்கள்": 5208,
      "வர்களும்": 5209,
      "சந்தை": 5210,
      "கண்டுபிடி": 5211,
      "தீர்வு": 5212,
      "உயிர்": 5213,
      "புரம்": 5214,
      "நடு": 5215,
      "ோக": 5216,
      "தம்ப": 5217,
      "வருமாறு": 5218,
      "மோட்டார்": 5219,
      "வருகிறார்கள்": 5220,
      "எனவும்": 5221,
      "ப்போம்": 5222,
      "ஏற்பட": 5223,
      "பாத்திர": 5224,
      "விதமாக": 5225,
      "ஒன்றை": 5226,
      "ிடு": 5227,
      "ஜம்": 5228,
      "அமைச்சரவை": 5229,
      "ையால்": 5230,
      "குண்டு": 5231,
      "த்தேன்": 5232,
      "மீதான": 5233,
      "இயக்குநர்": 5234,
      "த்தோ": 5235,
      "நானும்": 5236,
      "வீர்கள்": 5237,
      "விலான": 5238,
      "திமுக": 5239,
      "முனை": 5240,
      "தொடர்": 5241,
      "பொறுப்பு": 5242,
      "29": 5243,
      "தெரிவித்துள்ளனர்": 5244,
      "கொண்டிருந்த": 5245,
      "பொருட்கள்": 5246,
      "எதிர்க்க": 5247,
      "படப்பிடி": 5248,
      "சாத்திய": 5249,
      "பக": 5250,
      "இருப்பது": 5251,
      "ஸா": 5252,
      "எதிர்த்து": 5253,
      "அறிவிப்பு": 5254,
      "இதன": 5255,
      "நவீன": 5256,
      "படுத்து": 5257,
      "புல": 5258,
      "க்கொள": 5259,
      "முதலீடு": 5260,
      "நோயா": 5261,
      "வாங்க": 5262,
      "சிங்க": 5263,
      "நேர்": 5264,
      "வழங்கப்படும்": 5265,
      "வழக்கில்": 5266,
      "ினை": 5267,
      "சுற்றுலா": 5268,
      "ிருக்கிறேன்": 5269,
      "குற்றம்": 5270,
      "கடுமையான": 5271,
      "மேலாண்மை": 5272,
      "ஆதி": 5273,
      "விதை": 5274,
      "வேற": 5275,
      "ரான்": 5276,
      "வாய்ந்த": 5277,
      "திருத்த": 5278,
      "எதிர்": 5279,
      "உண்மையான": 5280,
      "ளிக்க": 5281,
      "ஆப்பி": 5282,
      "பயன": 5283,
      "டங்கு": 5284,
      "வையில்": 5285,
      "குறிப்பிட்டார்": 5286,
      "களைச்": 5287,
      "ாவது": 5288,
      "மோடிய": 5289,
      "இத்திட்ட": 5290,
      "விழாவில்": 5291,
      "கவனம்": 5292,
      "குடியரசுத்": 5293,
      "சாதாரண": 5294,
      "உழை": 5295,
      "விலும்": 5296,
      "வீட்டில்": 5297,
      "கிய": 5298,
      "போட்டு": 5299,
      "ப்பான்": 5300,
      "ிலி": 5301,
      "சிந்தி": 5302,
      "மிகப்": 5303,
      "ஒலி": 5304,
      "ஜூ": 5305,
      "தேடி": 5306,
      "பூம": 5307,
      "கடின": 5308,
      "ளிகள்": 5309,
      "உலகின்": 5310,
      "மாகக்": 5311,
      "இல்": 5312,
      "அளவுக்கு": 5313,
      "வைக்க": 5314,
      "படங்களில்": 5315,
      "கருத": 5316,
      "உருவாக்கு": 5317,
      "பந்த": 5318,
      "வெகு": 5319,
      "சத்திய": 5320,
      "தலைவர்கள்": 5321,
      "இதற்கான": 5322,
      "ப்பட்டனர்": 5323,
      "விக்கெ": 5324,
      "ீர்களா": 5325,
      "ேயு": 5326,
      "நபர்": 5327,
      "மீட்ப": 5328,
      "ராய்": 5329,
      "மாகாண": 5330,
      "மாவட்டத்தில்": 5331,
      "இறந்த": 5332,
      "கொண்டுள்ளது": 5333,
      "தீர்ப்ப": 5334,
      "ரத்து": 5335,
      "ர்களாக": 5336,
      "வசி": 5337,
      "ம்பு": 5338,
      "பின்பு": 5339,
      "அமி": 5340,
      "குரு": 5341,
      "சொன்": 5342,
      "புதி": 5343,
      "சட்டமன்ற": 5344,
      "ரஷ்": 5345,
      "பாகிஸ்தான": 5346,
      "முடிந்த": 5347,
      "வணிக": 5348,
      "றுத்த": 5349,
      "மலையாள": 5350,
      "ட்சிய": 5351,
      "தொடக்க": 5352,
      "மில்லியன்": 5353,
      "பூர்": 5354,
      "வழக்குப்": 5355,
      "இல்லாமல்": 5356,
      "இருக்கிறார்கள்": 5357,
      "ந்திரா": 5358,
      "பலத்த": 5359,
      "31": 5360,
      "குற்றச்சா": 5361,
      "ச்சூ": 5362,
      "அம்ச": 5363,
      "அப்போஸ்த": 5364,
      "வகுப்பு": 5365,
      "த்தேயு": 5366,
      "கடைசி": 5367,
      "அடிக்கடி": 5368,
      "ர்களிடம்": 5369,
      "மேம்படுத்த": 5370,
      "அஞ்ச": 5371,
      "உங்களை": 5372,
      "இருப்பதாக": 5373,
      "பற": 5374,
      "தெரியாது": 5375,
      "சரியாக": 5376,
      "ண்டில்": 5377,
      "டனும்": 5378,
      "னாக": 5379,
      "ழ்ந்த": 5380,
      "தரா": 5381,
      "தொற்று": 5382,
      "இங்கிலாந்து": 5383,
      "ஒன்றும்": 5384,
      "ார": 5385,
      "பிள": 5386,
      "திட்டங்கள்": 5387,
      "முன்னெ": 5388,
      "வீரர்": 5389,
      "அறு": 5390,
      "பெற்றோர்": 5391,
      "எப்போது": 5392,
      "டீசல்": 5393,
      "சதவி": 5394,
      "ஸ்தான்": 5395,
      "எல்லோ": 5396,
      "செய்துள்ளது": 5397,
      "துப்பாக்கி": 5398,
      "தெளிவாக": 5399,
      "சிறப்பாக": 5400,
      "விசாரித்து": 5401,
      "தகுதி": 5402,
      "பிரச்னை": 5403,
      "பிரச்சனை": 5404,
      "விரோ": 5405,
      "பதவிய": 5406,
      "ுரிமை": 5407,
      "வாரண": 5408,
      "இதற்காக": 5409,
      "ஹை": 5410,
      "தெரிவித்துள்ளது": 5411,
      "ப்பதை": 5412,
      "பயி": 5413,
      "மன்னி": 5414,
      "சாதனை": 5415,
      "டர்": 5416,
      "க்குவி": 5417,
      "இந்தி": 5418,
      "ஆச்ச": 5419,
      "வேளாண்": 5420,
      "ிருப்பது": 5421,
      "பருவ": 5422,
      "ப்படை": 5423,
      "மென்": 5424,
      "சமாதான": 5425,
      "நன்கு": 5426,
      "அல்லா": 5427,
      "தப்பி": 5428,
      "கையை": 5429,
      "ஆவி": 5430,
      "ஸ்டி": 5431,
      "காஷ்மீர்": 5432,
      "ஐரோப்பிய": 5433,
      "ஆகியவற்றை": 5434,
      "அவனை": 5435,
      "மாற்றி": 5436,
      "னேன்": 5437,
      "சதவிகி": 5438,
      "அச்சு": 5439,
      "வெறு": 5440,
      "விடுதலை": 5441,
      "தந்தை": 5442,
      "இயக்குனர்": 5443,
      "குழ": 5444,
      "அதிகபட்ச": 5445,
      "il": 5446,
      "வதால்": 5447,
      "லியல்": 5448,
      "மிள": 5449,
      "வில்ல": 5450,
      "பொதுவாக": 5451,
      "உன": 5452,
      "இரண்டாம்": 5453,
      "ஹீ": 5454,
      "களு": 5455,
      "கூடுதல": 5456,
      "பவுல்": 5457,
      "ப்பாள": 5458,
      "அனைத்தும்": 5459,
      "டெல்ல": 5460,
      "இயல்": 5461,
      "இத்தகைய": 5462,
      "சிறை": 5463,
      "எதிர்கால": 5464,
      "தயாரிக்க": 5465,
      "கப்ப": 5466,
      "ண்ணி": 5467,
      "மையம்": 5468,
      "தட": 5469,
      "எஞ்ச": 5470,
      "ியுள்ள": 5471,
      "க்கப்பட்டுள்ளன": 5472,
      "ஈடுபட்டு": 5473,
      "ஷ்ண": 5474,
      "சித்த": 5475,
      "கோடிய": 5476,
      "இறந்து": 5477,
      "விட்டனர்": 5478,
      "ஊக்குவி": 5479,
      "சவா": 5480,
      "போராட்டம்": 5481,
      "ழகம்": 5482,
      "சின்ன": 5483,
      "கிட்ட": 5484,
      "வைத்": 5485,
      "பாய": 5486,
      "மகாராஷ்ட": 5487,
      "ப்பாடு": 5488,
      "த்துக்கும்": 5489,
      "அவரிடம்": 5490,
      "சாதன": 5491,
      "என்றான்": 5492,
      "த்திற்காக": 5493,
      "அழைத்து": 5494,
      "ரஜினி": 5495,
      "வெளியாக": 5496,
      "2014": 5497,
      "கேரளா": 5498,
      "இதுவே": 5499,
      "விஷயம்": 5500,
      "திடீ": 5501,
      "இளம்": 5502,
      "னையும்": 5503,
      "ஸ்பூன்": 5504,
      "தனிப்பட்ட": 5505,
      "மகிழ்ச்சி": 5506,
      "மேற்கொண்ட": 5507,
      "ர்ட்ட": 5508,
      "தண்டனை": 5509,
      "ur": 5510,
      "கூறப்படுகிறது": 5511,
      "om": 5512,
      "வரவில்லை": 5513,
      "கடுமையாக": 5514,
      "கேப்டன்": 5515,
      "நிச்சயமாக": 5516,
      "அங்கே": 5517,
      "யாரு": 5518,
      "மரணம்": 5519,
      "தீர்கள்": 5520,
      "மின்ன": 5521,
      "தோன்ற": 5522,
      "காவல்துறையினர்": 5523,
      "300": 5524,
      "பெற்றுள்ளது": 5525,
      "வதற்கும்": 5526,
      "ரியில்": 5527,
      "எனக்": 5528,
      "ன்களை": 5529,
      "த்தள": 5530,
      "கொண்டது": 5531,
      "ஜம்மு": 5532,
      "இறை": 5533,
      "னான": 5534,
      "அவசர": 5535,
      "ரம்ப்": 5536,
      "முன்னே": 5537,
      "ஆட": 5538,
      "ரன்கள்": 5539,
      "உதவ": 5540,
      "மகள்": 5541,
      "ட்டல்": 5542,
      "உள்ளட": 5543,
      "ப்பாளர்": 5544,
      "ியே": 5545,
      "டொ": 5546,
      "மடைந்து": 5547,
      "குளி": 5548,
      "விவசாய": 5549,
      "மோகன்": 5550,
      "2015": 5551,
      "முழுமையாக": 5552,
      "சீர": 5553,
      "அற": 5554,
      "சமுதாய": 5555,
      "நடவடிக்கைகளை": 5556,
      "க்கர": 5557,
      "எழுத": 5558,
      "காய்": 5559,
      "சீன": 5560,
      "el": 5561,
      "றா": 5562,
      "எதிர்கொ": 5563,
      "வளர்ச்ச": 5564,
      "என்னால்": 5565,
      "ஆவார்": 5566,
      "ிருக்கலாம்": 5567,
      "ஆல": 5568,
      "சவு": 5569,
      "ரிக்கா": 5570,
      "லிட்டர்": 5571,
      "வுட்": 5572,
      "ஆஸ்திரேலியா": 5573,
      "ப்பதற்காக": 5574,
      "நடிக": 5575,
      "முயற்சிய": 5576,
      "பாருங்கள்": 5577,
      "சூழ": 5578,
      "ொன்ற": 5579,
      "அதிகரிக்க": 5580,
      "அளிக்க": 5581,
      "பங்களி": 5582,
      "இரத்த": 5583,
      "வருவதாக": 5584,
      "தெரிவிக்கப்பட்டுள்ளது": 5585,
      "அறிந்து": 5586,
      "எங்கே": 5587,
      "சேமி": 5588,
      "ம்பி": 5589,
      "அனுப்ப": 5590,
      "த்தீ": 5591,
      "னிலை": 5592,
      "அங்கீ": 5593,
      "வளாக": 5594,
      "கேரள": 5595,
      "ந்தைய": 5596,
      "முகா": 5597,
      "ர்களுக்கும்": 5598,
      "சூரிய": 5599,
      "புகா": 5600,
      "நீடி": 5601,
      "செயலாளர்": 5602,
      "மதிப்பீ": 5603,
      "செய்யப்படும்": 5604,
      "நெடு": 5605,
      "சொல்லு": 5606,
      "விதமான": 5607,
      "மையும்": 5608,
      "ஊரக": 5609,
      "குமார": 5610,
      "அவ்வாறு": 5611,
      "மனம்": 5612,
      "ஆவண": 5613,
      "அத்துடன்": 5614,
      "அதிர்ச்ச": 5615,
      "சங்கீ": 5616,
      "தமது": 5617,
      "விநிய": 5618,
      "மின்றி": 5619,
      "ர்டு": 5620,
      "உற்": 5621,
      "புரிய": 5622,
      "்களையும்": 5623,
      "வந்துள்ளது": 5624,
      "75": 5625,
      "பாலியல்": 5626,
      "விக்": 5627,
      "இவருக்கு": 5628,
      "வழியாக": 5629,
      "ப்பட்டார்": 5630,
      "உடனே": 5631,
      "கூட்டம்": 5632,
      "ப்பதில்": 5633,
      "க்குத்": 5634,
      "என்றாலும்": 5635,
      "வற்றை": 5636,
      "அணை": 5637,
      "ஒட்டு": 5638,
      "த்துள்ள": 5639,
      "பரிந்து": 5640,
      "தொடர்ந்த": 5641,
      "இருந்தன": 5642,
      "மரா": 5643,
      "இருந்தால்": 5644,
      "விசே": 5645,
      "அனுபவி": 5646,
      "தலைவராக": 5647,
      "தற்போதைய": 5648,
      "எத்த": 5649,
      "ரவி": 5650,
      "பாரம்ப": 5651,
      "அனுபவ": 5652,
      "நடைபெற": 5653,
      "45": 5654,
      "ற்கா": 5655,
      "நிலையத்தில்": 5656,
      "ருடன்": 5657,
      "நடக்க": 5658,
      "வந்தனர்": 5659,
      "்கிறோம்": 5660,
      "ப்பினர்": 5661,
      "நன்மை": 5662,
      "லூ": 5663,
      "லியில்": 5664,
      "துறையில்": 5665,
      "ரத்த": 5666,
      "இயக்கத்தில்": 5667,
      "அதற்காக": 5668,
      "கடல்": 5669,
      "மொழ": 5670,
      "விரைந்து": 5671,
      "ரிக்": 5672,
      "தலைமையிலான": 5673,
      "மீட்பு": 5674,
      "நடக்கும்": 5675,
      "அன்ப": 5676,
      "பாரம்பரிய": 5677,
      "முறையை": 5678,
      "உறுப்பினர்கள்": 5679,
      "சூப்பர்": 5680,
      "ஆய்": 5681,
      "90": 5682,
      "விஜய": 5683,
      "காண்பி": 5684,
      "தங்களுடைய": 5685,
      "உடைய": 5686,
      "னுடன்": 5687,
      "வோர்": 5688,
      "மாணவி": 5689,
      "சார்பில்": 5690,
      "ரயில்வே": 5691,
      "வரையில்": 5692,
      "வேண்டுமா": 5693,
      "க்கப்பட்டுள்ளனர்": 5694,
      "நடைபெற்றது": 5695,
      "வுள்ளது": 5696,
      "வருவாய்": 5697,
      "போய": 5698,
      "க்கால": 5699,
      "ஓட்டு": 5700,
      "ங்கல்": 5701,
      "தலைமையில்": 5702,
      "ஒன்றாக": 5703,
      "ப்படுத்துதல்": 5704,
      "ஏழை": 5705,
      "வீட்ட": 5706,
      "சிந்த": 5707,
      "தமிழகத்தில்": 5708,
      "அறிக்கையில்": 5709,
      "உற்சாக": 5710,
      "ுபடி": 5711,
      "ம்ஸ்": 5712,
      "சாமி": 5713,
      "பக்கத்தில்": 5714,
      "பேச்சுவார்த்தை": 5715,
      "ஏனென்றால்": 5716,
      "ியால்": 5717,
      "ையில்லை": 5718,
      "பாத": 5719,
      "பைபிள": 5720,
      "ுறவு": 5721,
      "தரும்": 5722,
      "ஒப்பந்தம்": 5723,
      "னைய": 5724,
      "ன்மைய": 5725,
      "த்தினை": 5726,
      "தடுக்க": 5727,
      "னையை": 5728,
      "செய்துள்ளனர்": 5729,
      "பிரதிநிதி": 5730,
      "பாராட்டு": 5731,
      "செயல்பாடு": 5732,
      "கூட்டுறவு": 5733,
      "சிறையில்": 5734,
      "நிலையம்": 5735,
      "கர்நாடக": 5736,
      "லலி": 5737,
      "கஷ்ட": 5738,
      "தங்களது": 5739,
      "விட்டேன்": 5740,
      "அமைந்துள்ளது": 5741,
      "னல்": 5742,
      "இதனையடுத்து": 5743,
      "இதோ": 5744,
      "செலுத்து": 5745,
      "எதை": 5746,
      "நிர்ண": 5747,
      "வெறும்": 5748,
      "வாற": 5749,
      "முஸ்": 5750,
      "கழு": 5751,
      "செய்கிறது": 5752,
      "நடித்துள்ளார்": 5753,
      "கூறுகையில்": 5754,
      "ாரா": 5755,
      "முற்றிலும்": 5756,
      "கருவி": 5757,
      "ப்ர": 5758,
      "செயற்ப": 5759,
      "தானே": 5760,
      "விடம்": 5761,
      "ணைப்பு": 5762,
      "ப்படைய": 5763,
      "மீன": 5764,
      "சொத்து": 5765,
      "ட்ஸ்": 5766,
      "சென்னையில்": 5767,
      "இடத்திற்கு": 5768,
      "வென்று": 5769,
      "ங்கில்": 5770,
      "அளவிலான": 5771,
      "இதர": 5772,
      "இயற்கை": 5773,
      "தமான": 5774,
      "அதுதான்": 5775,
      "நகரில்": 5776,
      "பெரும்பாலும்": 5777,
      "ஊராட்சி": 5778,
      "எங்க": 5779,
      "ஓட்ட": 5780,
      "பிராந்திய": 5781,
      "வேகமாக": 5782,
      "ும்போது": 5783,
      "ில்தான்": 5784,
      "நாளை": 5785,
      "ர்களே": 5786,
      "பிரச": 5787,
      "பார்வைய": 5788,
      "விடா": 5789,
      "மாட்டேன்": 5790,
      "உடை": 5791,
      "க்கப்பட்டார்": 5792,
      "படப்பிடிப்பு": 5793,
      "கிடைத்த": 5794,
      "அதிகரிக்கும்": 5795,
      "ஸில்": 5796,
      "நடைபெறும்": 5797,
      "மழ": 5798,
      "ch": 5799,
      "ிருக்கிறோம்": 5800,
      "நாட்கள்": 5801,
      "மாணவ": 5802,
      "198": 5803,
      "ராகவும்": 5804,
      "ஒத்துழைப்பு": 5805,
      "மந்தி": 5806,
      "கணக்கு": 5807,
      "ஷே": 5808,
      "ரித்த": 5809,
      "33": 5810,
      "பிய": 5811,
      "ன்க": 5812,
      "கழக": 5813,
      "விழிப்பு": 5814,
      "காவ": 5815,
      "ஒருபோதும்": 5816,
      "ிகள்": 5817,
      "முறைகள்": 5818,
      "காப்ப": 5819,
      "தோடு": 5820,
      "மாவட்டங்களில்": 5821,
      "சிர": 5822,
      "நுழை": 5823,
      "சிசி": 5824,
      "க்கத்தை": 5825,
      "சிறுவ": 5826,
      "க்கப்": 5827,
      "ப்பதாக": 5828,
      "விண்ணப்ப": 5829,
      "போலவே": 5830,
      "டெல்லியில்": 5831,
      "என்னும்": 5832,
      "கர்நாடகா": 5833,
      "அதிர": 5834,
      "கிட": 5835,
      "உயர்த்த": 5836,
      "அருகில்": 5837,
      "ையைப்": 5838,
      "குற்றவா": 5839,
      "ரிகள்": 5840,
      "போட": 5841,
      "இரவு": 5842,
      "ஒப்பி": 5843,
      "அமைச்சக": 5844,
      "உள்துறை": 5845,
      "கட்டண": 5846,
      "போலீசா": 5847,
      "அவர்களது": 5848,
      "ஏற்படுத்தியுள்ளது": 5849,
      "தண்ணீ": 5850,
      "எழுத்து": 5851,
      "இலக்கு": 5852,
      "கேட": 5853,
      "தடுப்பு": 5854,
      "?\"": 5855,
      "அடையாளம்": 5856,
      "ஆயிரம்": 5857,
      "ங்களுக்கும்": 5858,
      "கிரே": 5859,
      "சந்திர": 5860,
      "தலைய": 5861,
      "சனம்": 5862,
      "மாநிலத்தின்": 5863,
      "யும்": 5864,
      "ளிடம்": 5865,
      "்த்": 5866,
      "ஆத": 5867,
      "ஆண்டுகளில்": 5868,
      "ழமை": 5869,
      "அவ்வளவு": 5870,
      "is": 5871,
      "உங்களுடைய": 5872,
      "வெங்கா": 5873,
      "பிரிய": 5874,
      "குறிப்பிடு": 5875,
      "வா்கள்": 5876,
      "விசுவாச": 5877,
      "ol": 5878,
      "தலா": 5879,
      "வர்க்க": 5880,
      "கவர்": 5881,
      "நிவாரண": 5882,
      "ர்ஷ்ட": 5883,
      "வழக்குப்பதிவு": 5884,
      "தம்முடைய": 5885,
      "பணியில்": 5886,
      "வாயு": 5887,
      "த்துள்ளனர்": 5888,
      "வெளியுறவு": 5889,
      "வைக்": 5890,
      "ஏற்படுத்தி": 5891,
      "ளோ": 5892,
      "லான": 5893,
      "பேசினார்": 5894,
      "நாளில்": 5895,
      "றையும்": 5896,
      "இன்னொரு": 5897,
      "கீழே": 5898,
      "எடுத்துக்": 5899,
      "வேண்டியது": 5900,
      "கட்டுரை": 5901,
      "மகளி": 5902,
      "சற்று": 5903,
      "போன்": 5904,
      "et": 5905,
      "பயணிகள்": 5906,
      "மாகி": 5907,
      "ஆசை": 5908,
      "குறிய": 5909,
      "பிள்ளைகள்": 5910,
      "டூ": 5911,
      "லலிதா": 5912,
      "இணைப்பு": 5913,
      "ஆச்சரிய": 5914,
      "32": 5915,
      "பரிந்துரை": 5916,
      "முக்கியத்துவம்": 5917,
      "அளிக்கும்": 5918,
      "வைத்திய": 5919,
      "கொஞ்சம்": 5920,
      ").": 5921,
      "ஆழ": 5922,
      "தீர்க்கதரி": 5923,
      "கிராம்": 5924,
      "உண்டா": 5925,
      "இருதய": 5926,
      "ங்களுடன்": 5927,
      "வாதிகள்": 5928,
      "டிவி": 5929,
      "பெங்களூ": 5930,
      "பேரா": 5931,
      "குஜராத்": 5932,
      "ப்பதற்கான": 5933,
      "பரிசுத்த": 5934,
      "திகள்": 5935,
      "இஸ்ரவேல": 5936,
      "பாட்ட": 5937,
      "நிராக": 5938,
      "தேர்ந்தெடு": 5939,
      "ச்சே": 5940,
      "பேருந்து": 5941,
      "மானிய": 5942,
      "மூட": 5943,
      "த்தொட": 5944,
      "தன்னை": 5945,
      "as": 5946,
      "வாழ்க்கையில்": 5947,
      "உயர": 5948,
      "ன்றித": 5949,
      "போட்டிகளில்": 5950,
      "ியாளர்": 5951,
      "திட்டத்தை": 5952,
      "வலைதள": 5953,
      "கீழ்ப்ப": 5954,
      "செய்வதற்கு": 5955,
      "பலியாக": 5956,
      "வட்டார": 5957,
      "ராத": 5958,
      "பழைய": 5959,
      "பொறுத்த": 5960,
      "பக்கம்": 5961,
      "மோசமான": 5962,
      "பிரேத": 5963,
      "சுத்த": 5964,
      "ப்பொ": 5965,
      "மாறாக": 5966,
      "ஜெயலலிதா": 5967,
      "கணக்கில்": 5968,
      "அழுத்த": 5969,
      "இருந்தனர்": 5970,
      "மாதிரிய": 5971,
      "சட": 5972,
      "கொள்ளவும்": 5973,
      "வியின்": 5974,
      "காவல்துறை": 5975,
      "சம்பந்தப்பட்ட": 5976,
      "தீர்மானி": 5977,
      "சலி": 5978,
      "அரை": 5979,
      "மூன்றாவது": 5980,
      "அதைப்": 5981,
      "உதாரணமாக": 5982,
      "வாங்கி": 5983,
      "அழைப்பு": 5984,
      "வேல்": 5985,
      "சான்றித": 5986,
      "அப்படியே": 5987,
      "மட்ட": 5988,
      "ற்றும்": 5989,
      "ஏதும்": 5990,
      "த்தலை": 5991,
      "ருந்த": 5992,
      "ச்செ": 5993,
      "பதிலளி": 5994,
      "ின்று": 5995,
      "ுள்ளன": 5996,
      "கண்டுபிடிக்க": 5997,
      "ent": 5998,
      "சிபிஐ": 5999,
      "ஜனதா": 6000,
      "செய்க": 6001,
      "பழங்கு": 6002,
      "்களாக": 6003,
      "கரி": 6004,
      "கொள்கிறேன்": 6005,
      "வாரம்": 6006,
      "ந்துள்ளனர்": 6007,
      "அவனுக்கு": 6008,
      "நிறுத்தி": 6009,
      "கொண்டே": 6010,
      "குற்றச்சாட்டு": 6011,
      "ஆட்டோ": 6012,
      "விதத்தில்": 6013,
      "செய்யவில்லை": 6014,
      "செய்யலாம்": 6015,
      "சொல்கிறது": 6016,
      "அரி": 6017,
      "த்திரம்": 6018,
      "மகன": 6019,
      "ங்களைச்": 6020,
      "உலகில்": 6021,
      "ப்பொரு": 6022,
      "நிறைந்த": 6023,
      "ியன்": 6024,
      "தொழிலாளர்கள்": 6025,
      "செயல்பட்டு": 6026,
      "பதிலாக": 6027,
      "விடுவி": 6028,
      "உண்ட": 6029,
      "நகரம்": 6030,
      "ed": 6031,
      "அன்ற": 6032,
      "பிற்ப": 6033,
      "போன்று": 6034,
      "விரோத": 6035,
      "சர்மா": 6036,
      "வெற்ற": 6037,
      "சிறிது": 6038,
      "அதிமுக": 6039,
      "உருவாக்க": 6040,
      "குறிப்பிட்டுள்ளார்": 6041,
      "மறுத்து": 6042,
      "்க்கு": 6043,
      "ஓய்வு": 6044,
      "இயக்கிய": 6045,
      "வினர்": 6046,
      "இன்றைய": 6047,
      "ஏனெனில்": 6048,
      "அவரின்": 6049,
      "உணர்வு": 6050,
      "முட": 6051,
      "விஞ்": 6052,
      "அமைந்துள்ள": 6053,
      "நிரூ": 6054,
      "உயர்ந்த": 6055,
      "ன்னு": 6056,
      "உப்பு": 6057,
      "ஜெர்": 6058,
      "க்கப்பட்டன": 6059,
      "யுத்த": 6060,
      "உள்நாட்டு": 6061,
      "த்ய": 6062,
      "மலா": 6063,
      "தக்க": 6064,
      "ிருக்கின்றனர்": 6065,
      "நொ": 6066,
      "உறுதியாக": 6067,
      "ியாளர்கள்": 6068,
      "ங்க்": 6069,
      "ஏதாவது": 6070,
      "தலி": 6071,
      "மசோ": 6072,
      "மகளிர்": 6073,
      ".\"\"\"": 6074,
      "க்கட்ட": 6075,
      "காதல்": 6076,
      "சகோதரி": 6077,
      "தொடர்புடைய": 6078,
      "’’": 6079,
      "தீர்ப்பு": 6080,
      "சமயத்தில்": 6081,
      "வரலாற்று": 6082,
      "இயந்திர": 6083,
      "்கட்ட": 6084,
      "அலுவலகம்": 6085,
      "பெற்றார்": 6086,
      "ஒன்றிய": 6087,
      "ளவில்": 6088,
      "பிலி": 6089,
      "அரசுக்கு": 6090,
      "சாலையில்": 6091,
      "பட்டியலில்": 6092,
      "ஹீரோ": 6093,
      "37": 6094,
      "கொள்ளும்": 6095,
      "மீட்க": 6096,
      "மதிப்பீட்டில்": 6097,
      "செப்ட": 6098,
      "பச்சை": 6099,
      "வருகின்றனா்": 6100,
      "ஒழுங்கு": 6101,
      "ையைக்": 6102,
      "ோகி": 6103,
      "த்தோடு": 6104,
      "ர்ப்பா": 6105,
      "க்கியது": 6106,
      "பிடித்து": 6107,
      "இணையதள": 6108,
      "தவறான": 6109,
      "மதுரை": 6110,
      "ing": 6111,
      "\"\"\"\"\"": 6112,
      "மந்த": 6113,
      "மசோதா": 6114,
      "பிடித்த": 6115,
      "குடிநீர்": 6116,
      "ஹூ": 6117,
      "முடிந்தது": 6118,
      "சந்தித்து": 6119,
      "உலகள": 6120,
      "வுக்கும்": 6121,
      "சுட்டி": 6122,
      "எச்சரிக்கை": 6123,
      "தெரிகிறது": 6124,
      "கட்டணம்": 6125,
      "விளக்கு": 6126,
      "விடய": 6127,
      "மாநிலங்களில்": 6128,
      "பிரதான": 6129,
      "யல்": 6130,
      "ருதி": 6131,
      "விளக்க": 6132,
      "மதம்": 6133,
      "புண": 6134,
      "ருடைய": 6135,
      "காப்பா": 6136,
      "தேர்": 6137,
      "மேம்படுத்து": 6138,
      "ினால்": 6139,
      "்தா": 6140,
      "ஆல்": 6141,
      "கட்டமைப்பு": 6142,
      "அதிர்ஷ்ட": 6143,
      "என்பதாக": 6144,
      "விஞ்ஞான": 6145,
      "சரா": 6146,
      "ஜு": 6147,
      "ணும்": 6148,
      "அதோடு": 6149,
      "ராக்": 6150,
      "மளி": 6151,
      "தேசம்": 6152,
      "வரலாற்ற": 6153,
      "கையெழு": 6154,
      "36": 6155,
      "ணியில்": 6156,
      "ஸ்மா": 6157,
      "சுற்றுச்சூ": 6158,
      "வடிவமை": 6159,
      "்டோ": 6160,
      "விசாரிக்க": 6161,
      "வைத்தார்": 6162,
      "கிடைக்க": 6163,
      "டியில்": 6164,
      "விட்டர்": 6165,
      "இச்சம்ப": 6166,
      "ப்பற்றி": 6167,
      "அப்பொழுது": 6168,
      "தோல்வி": 6169,
      "மீட்டு": 6170,
      "பலரும்": 6171,
      "ந்தார்": 6172,
      "்கான": 6173,
      "விட்டால்": 6174,
      "தில்லி": 6175,
      "எதிர்பார்க்கப்படுகிறது": 6176,
      "இப்போ": 6177,
      "கனி": 6178,
      "த்திட்ட": 6179,
      "க்கிறோம்": 6180,
      "கொண்டிருக்கிறது": 6181,
      "இலவச": 6182,
      "வெளியாகிய": 6183,
      "ஓடி": 6184,
      "உள்ளூர்": 6185,
      "வதி": 6186,
      "பிள்": 6187,
      "கண்டறிய": 6188,
      "நவ": 6189,
      "லாமல்": 6190,
      "மாண்பு": 6191,
      "34": 6192,
      "கூறியதாவது": 6193,
      "அப்போஸ்தல": 6194,
      "அறிக்க": 6195,
      "படங்கள்": 6196,
      "விந்த்": 6197,
      "க்காட்டு": 6198,
      "வேலைவாய்ப்பு": 6199,
      "விரா": 6200,
      "டுகள்": 6201,
      "பாதை": 6202,
      "முக்கியம்": 6203,
      "டங்கள்": 6204,
      "பகிர்ந்து": 6205,
      "சையில்": 6206,
      "ேயான": 6207,
      "தேவையில்லை": 6208,
      "தரப்பு": 6209,
      "சென்": 6210,
      "மொழிகளில்": 6211,
      "க்கர்": 6212,
      "மாறிய": 6213,
      "உயர்ந்து": 6214,
      "தீயணைப்பு": 6215,
      "தியின்": 6216,
      "பேட்டி": 6217,
      "ஒப்படை": 6218,
      "ங்களே": 6219,
      "பிரெ": 6220,
      "யர்": 6221,
      "சிக்கி": 6222,
      "இதுதொடர்பாக": 6223,
      "விரும்பி": 6224,
      "க்காமல்": 6225,
      "கொள்ளுங்கள்": 6226,
      "யூனி": 6227,
      "ற்றம்": 6228,
      "நிச்சயம்": 6229,
      "துர": 6230,
      "வேளாண்மை": 6231,
      "வைச்": 6232,
      "தொலைக்கா": 6233,
      "வகையான": 6234,
      "பறிமுதல்": 6235,
      "அட்ட": 6236,
      "அவு": 6237,
      "பஞ்சாப்": 6238,
      "ரைக்": 6239,
      "ூதிய": 6240,
      "ரோடு": 6241,
      "டிரம்ப்": 6242,
      "ியைப்": 6243,
      "இப்படம்": 6244,
      "கால்நடை": 6245,
      "சாட்சிகள்": 6246,
      "மியா": 6247,
      "்பா": 6248,
      "அர்": 6249,
      "நறு": 6250,
      "சென்றனர்": 6251,
      "ஆணையம்": 6252,
      "வாங்கு": 6253,
      "விவரம்": 6254,
      "முடிக்க": 6255,
      "மார்ச்": 6256,
      "கமல்": 6257,
      "முன்னதாக": 6258,
      "தைப்": 6259,
      "அலை": 6260,
      "பத்திரிகை": 6261,
      "பசு": 6262,
      "காந்த்": 6263,
      "எதையும்": 6264,
      "சுரு": 6265,
      "150": 6266,
      "சட்டசபை": 6267,
      "அல்": 6268,
      "தூய்": 6269,
      "ராஜி": 6270,
      "ஓய்வ": 6271,
      "த்தினால்": 6272,
      "குழப்ப": 6273,
      "ஆயுத": 6274,
      "தகவல": 6275,
      "த்திலுள்ள": 6276,
      "நிர்வாகம்": 6277,
      "அமித்": 6278,
      "சைக்கி": 6279,
      "ேஷ்": 6280,
      "தகுதிய": 6281,
      "ையான": 6282,
      "க்குக்": 6283,
      "திரி": 6284,
      "வறு": 6285,
      "di": 6286,
      "போலி": 6287,
      "இப்பொழுது": 6288,
      "முது": 6289,
      "எழுத்த": 6290,
      "ிற்கான": 6291,
      "தினமும்": 6292,
      "ழ்க": 6293,
      "செய்துள்ள": 6294,
      "முதன்மை": 6295,
      "அதிகாரப்பூர்வ": 6296,
      "த்தட்ட": 6297,
      "விண்": 6298,
      "நட்ச": 6299,
      "பணிய": 6300,
      "சூழ்நிலை": 6301,
      "விவகாரம்": 6302,
      "அண்": 6303,
      "பாய்": 6304,
      "ரைப்": 6305,
      "அத்தகைய": 6306,
      "த்தினார்": 6307,
      "மாண்புமிகு": 6308,
      "ென்ன": 6309,
      "ரீதியாக": 6310,
      "இயேசுவின்": 6311,
      "ாகக்": 6312,
      "பயங்கரவாத": 6313,
      "சர்க்க": 6314,
      "ப்பூர்": 6315,
      "அவா்": 6316,
      "ரையா": 6317,
      "அதுவும்": 6318,
      "வுள்ள": 6319,
      "உபய": 6320,
      "ென": 6321,
      "நல்லது": 6322,
      "களே": 6323,
      "என்னிடம்": 6324,
      "வைரலாக": 6325,
      "ation": 6326,
      "கோவிட்": 6327,
      "விளைவு": 6328,
      "மத்தேயு": 6329,
      "தொடர": 6330,
      "எத்தனை": 6331,
      "்க்": 6332,
      "re": 6333,
      "கோப": 6334,
      "அந்தச்": 6335,
      "ஞர்": 6336,
      "ிறு": 6337,
      "மகாராஷ்டிரா": 6338,
      "ஆப்": 6339,
      "வீழ்த்த": 6340,
      "கட்டுமான": 6341,
      "மின்சார": 6342,
      "உற்பத்திய": 6343,
      "வளை": 6344,
      "மாம்": 6345,
      "பாலிவுட்": 6346,
      "கரமாக": 6347,
      "ஏற்றுக்கொள்ள": 6348,
      ":-": 6349,
      "பட்ஜெ": 6350,
      "அமெரிக்காவில்": 6351,
      "கடற்ப": 6352,
      "உம்": 6353,
      "செய்யப்பட": 6354,
      "வசதிகள்": 6355,
      "இதுபோன்ற": 6356,
      "கிட்டத்தட்ட": 6357,
      "ையையும்": 6358,
      "நிகழ்வு": 6359,
      "அமெரிக்காவின்": 6360,
      "வூ": 6361,
      "ஒருங்கிணைந்த": 6362,
      "வழியில்": 6363,
      "மாண்ட": 6364,
      "வருகிற": 6365,
      "திட்டங்களை": 6366,
      "குறைவாக": 6367,
      "th": 6368,
      "நேரடியாக": 6369,
      "ைச்": 6370,
      "முழுக்க": 6371,
      "யோசி": 6372,
      "வைத்தனர்": 6373,
      "ிடையே": 6374,
      "வழங்கப்பட்டது": 6375,
      "ro": 6376,
      "மீட்ட": 6377,
      "க்களின்": 6378,
      "வழங்கப்படுகிறது": 6379,
      "பூமி": 6380,
      "படிப்பு": 6381,
      "ஜின்": 6382,
      "மட்டுமல்ல": 6383,
      "வட்டி": 6384,
      "தியும்": 6385,
      "நிரூபி": 6386,
      "கிடைத்தது": 6387,
      "வரலாறு": 6388,
      "களுக்காக": 6389,
      "பொருட்களை": 6390,
      "ஒருவேளை": 6391,
      "காலை": 6392,
      "எனத்": 6393,
      "ஓய்வூதிய": 6394,
      "மாணவிய": 6395,
      "லாந்து": 6396,
      "வருகின்றது": 6397,
      "பிரசங்கி": 6398,
      "கொள்ளலாம்": 6399,
      "நிற்க": 6400,
      "ஆயிரக்கணக்கான": 6401,
      "மனதில்": 6402,
      "மொழிகள்": 6403,
      "உறவின": 6404,
      "ஊழியர்கள்": 6405,
      "க்கிட": 6406,
      "கருது": 6407,
      "தொழிலாளர்": 6408,
      "கிருஷ்ண": 6409,
      "அண்ண": 6410,
      "மாட்டார்கள்": 6411,
      "இடது": 6412,
      "கிடைக்கவில்லை": 6413,
      "உத்தரவு": 6414,
      "ரூபாய": 6415,
      "கற்பி": 6416,
      "விட்டன": 6417,
      "முடியுமா": 6418,
      "நடக்கிறது": 6419,
      "யூனிய": 6420,
      "நகராட்சி": 6421,
      "வடை": 6422,
      "ப்பிற்கு": 6423,
      "ரஷ்யா": 6424,
      "புற்று": 6425,
      "ராஜஸ்தான்": 6426,
      "ஆண்டுகளுக்கு": 6427,
      "ங்குகிறது": 6428,
      "மொழிபெய": 6429,
      "எஞ்சின்": 6430,
      "ஏப்": 6431,
      "சாரம்": 6432,
      "ப்பார்": 6433,
      "தாவீ": 6434,
      "ழிவு": 6435,
      "ங்களால்": 6436,
      "நகர்ப்பு": 6437,
      "விடுதி": 6438,
      "தினம்": 6439,
      "ர்ப்பி": 6440,
      "சங்கீதம்": 6441,
      "இழந்த": 6442,
      "பெருமை": 6443,
      "வாழ்க்கையை": 6444,
      "இந்தியாவுக்கு": 6445,
      "்குமார்": 6446,
      "இலங்க": 6447,
      "சாய": 6448,
      "பின்வருமாறு": 6449,
      "சியம்": 6450,
      "திரா": 6451,
      "புதிதாக": 6452,
      "2013": 6453,
      "வதே": 6454,
      "ெனவே": 6455,
      "முந்தைய": 6456,
      "இரா": 6457,
      "அவர்களிடம்": 6458,
      "``": 6459,
      "தாக்குதலில்": 6460,
      "வருகிறோம்": 6461,
      "ிருந்தன": 6462,
      "யோவான்": 6463,
      "சோதி": 6464,
      "ஏற்படுத்து": 6465,
      "க்கொண்டார்": 6466,
      "இப்படத்தின்": 6467,
      "பிழை": 6468,
      "99": 6469,
      "ிருத்த": 6470,
      "நடத்தினர்": 6471,
      "ஏற்கெனவே": 6472,
      "வரவேற்ப": 6473,
      "வெள்ளை": 6474,
      "தெரிந்த": 6475,
      "வானது": 6476,
      "விவாதி": 6477,
      "சீர்த": 6478,
      "இப்படிப்பட்ட": 6479,
      "ஜூன்": 6480,
      "ஸின்": 6481,
      "சத்து": 6482,
      "சோசலி": 6483,
      "உனக்கு": 6484,
      "ிருப்பதாக": 6485,
      "விசேஷ": 6486,
      "மிரு": 6487,
      "கேட்ப": 6488,
      "யாருக்கும்": 6489,
      "வாழும்": 6490,
      "நாட்களில்": 6491,
      "தேர்ந்தெ": 6492,
      "வெளிநாட்டு": 6493,
      "கிறிஸ்தவர்கள்": 6494,
      "ோடி": 6495,
      "இருக்காது": 6496,
      "அமைக்க": 6497,
      "க்கெடு": 6498,
      "48": 6499,
      "பரலோக": 6500,
      "பங்கேற்க": 6501,
      "இடி": 6502,
      "செலவில்": 6503,
      "எவ்வித": 6504,
      "கடைசிய": 6505,
      "நாடுகளின்": 6506,
      "இஸ்ரே": 6507,
      "ிருப்பு": 6508,
      "விவசாயிகளுக்கு": 6509,
      "கைப்பற்றி": 6510,
      "and": 6511,
      "சுட்டு": 6512,
      "ஊதிய": 6513,
      "க்கப்பட்டுள்ளார்": 6514,
      "மாணவர்": 6515,
      "உறுதிய": 6516,
      "அமைதி": 6517,
      "கேட்டார்": 6518,
      "கப்": 6519,
      "டில்": 6520,
      "த்தன்மை": 6521,
      "வசன": 6522,
      "துணைத்": 6523,
      "காந்த": 6524,
      "ஆசீ": 6525,
      "வேட்பாள": 6526,
      "ஊக்க": 6527,
      "ந்தர்": 6528,
      "இறுதியில்": 6529,
      "ரும்பு": 6530,
      "மதிப்பீடு": 6531,
      "அதனால": 6532,
      "பொய்": 6533,
      "le": 6534,
      "ியைக்": 6535,
      "ஏப்ரல்": 6536,
      "எந்தவொரு": 6537,
      "பொலிஸ்": 6538,
      "ஆவிக்குரிய": 6539,
      "தன்மை": 6540,
      "பவர்": 6541,
      "சும்": 6542,
      "புலி": 6543,
      "ஒற்று": 6544,
      "பத்திர": 6545,
      "ஸ்போ": 6546,
      "புதுப்பி": 6547,
      "தீவிரமாக": 6548,
      "ஒட்டுமொத்த": 6549,
      "அதிர்ச்சி": 6550,
      "மனைவிய": 6551,
      "மஹி": 6552,
      "சுற்றி": 6553,
      "காற்று": 6554,
      "முன்பாக": 6555,
      "65": 6556,
      "த்தார்கள்": 6557,
      "இத்தா": 6558,
      "குடியுரிமை": 6559,
      "38": 6560,
      "நெறி": 6561,
      "பெண்களுக்கு": 6562,
      "தெற்கு": 6563,
      "விலக": 6564,
      "இவர்களுக்கு": 6565,
      "ஏழு": 6566,
      "மருத்துவர்கள்": 6567,
      "இடையில்": 6568,
      "கதாபாத்திர": 6569,
      "நிதியு": 6570,
      "தற்கா": 6571,
      "ையெல்லாம்": 6572,
      "தொடரில்": 6573,
      "வாடிக்க": 6574,
      "மரியாதை": 6575,
      "அறை": 6576,
      "வரம்": 6577,
      "தெல்லாம்": 6578,
      "மந்திரி": 6579,
      "சேவைகள்": 6580,
      "ாலை": 6581,
      "ஸ்டர்": 6582,
      "மால்": 6583,
      "ஸ்தான": 6584,
      "ர்களுடன்": 6585,
      "தல்ல": 6586,
      "In": 6587,
      "44": 6588,
      "நடிக்கிறார்": 6589,
      "விகிதம்": 6590,
      "ஒழி": 6591,
      "கோல்": 6592,
      "களான": 6593,
      "தகவல்களை": 6594,
      "தூர": 6595,
      "பங்கேற்றனர்": 6596,
      "ஹே": 6597,
      "ளுமன்ற": 6598,
      "இப்படத்தில்": 6599,
      "பணியாற்றி": 6600,
      "க்குறை": 6601,
      "நிபுண": 6602,
      "இருக்கிறேன்": 6603,
      "அதுவே": 6604,
      "முஸ்லி": 6605,
      "ளைய": 6606,
      "நீங்க": 6607,
      "வாகும்": 6608,
      "டையும்": 6609,
      "ஸ்பெ": 6610,
      "க்கின்": 6611,
      "கொல": 6612,
      "ப்தி": 6613,
      "பேருக்கு": 6614,
      "மிகச்": 6615,
      "உணர்ச்சி": 6616,
      "டால": 6617,
      "id": 6618,
      "சந்திப்பு": 6619,
      "கலாச்சார": 6620,
      "க்கப்பட்டனர்": 6621,
      "பிறப்பி": 6622,
      "சுழ": 6623,
      "மும்ப": 6624,
      "ஜான்": 6625,
      "செய்தல்": 6626,
      "மஞ்ச": 6627,
      "தாப": 6628,
      "யூத": 6629,
      "--": 6630,
      "ஒருநாள்": 6631,
      "இதற்க": 6632,
      "செய்திகள்": 6633,
      "உரை": 6634,
      "‘‘": 6635,
      "பிரிவில்": 6636,
      "போட்டிகள்": 6637,
      "மாகவே": 6638,
      "அதிகபட்சமாக": 6639,
      "இதய": 6640,
      "சமயம்": 6641,
      "வடக்கு": 6642,
      "படியும்": 6643,
      "எனும்": 6644,
      "முயற்சிகள்": 6645,
      "un": 6646,
      "கொடுக்கும்": 6647,
      "படும்": 6648,
      "ஏற": 6649,
      "கடிதம்": 6650,
      "ட்டினார்": 6651,
      "தயாரிப்பு": 6652,
      "எல்லாவற்ற": 6653,
      "ஆப்கான": 6654,
      "400": 6655,
      "பழங்குடிய": 6656,
      "என்கிறார்": 6657,
      "ஆகியவற்றின்": 6658,
      "கார்த்தி": 6659,
      "விவரங்கள்": 6660,
      "லண்ட": 6661,
      "க்கின்றனர்": 6662,
      "நோக்கம்": 6663,
      "எண்ணிக்க": 6664,
      "ா்ப": 6665,
      "அவற்றின்": 6666,
      "நிமி": 6667,
      "விற்பனைக்கு": 6668,
      "முன்னர்": 6669,
      "ங்ட": 6670,
      "இவர்கள": 6671,
      "தேடு": 6672,
      "பாராளுமன்ற": 6673,
      "அவர்களில்": 6674,
      "ஏற்படுத்தியது": 6675,
      "வெளியாகி": 6676,
      "அமைப்பின்": 6677,
      "செயலா": 6678,
      "கூடுதலாக": 6679,
      "போன்றவை": 6680,
      "சட்டத்தின்": 6681,
      "எக்ஸ்": 6682,
      "எடுக்கப்படும்": 6683,
      "ad": 6684,
      "தெரியுமா": 6685,
      "ஆளும்": 6686,
      "தடுத்து": 6687,
      "பொழுது": 6688,
      "பக்தர்கள்": 6689,
      "சுர": 6690,
      "வன்முறை": 6691,
      "நெல்": 6692,
      "அளவிற்கு": 6693,
      "ிருக்கு": 6694,
      "தற்கான": 6695,
      "ிருந்தால்": 6696,
      "ஈரா": 6697,
      "கோலி": 6698,
      "ரத்": 6699,
      "அடங்கிய": 6700,
      "எக்": 6701,
      "ஐபி": 6702,
      "மார்க்க": 6703,
      "ாலின்": 6704,
      "அண்மையில்": 6705,
      "இழந்து": 6706,
      "டுக்கு": 6707,
      "னாளி": 6708,
      "ஜித்": 6709,
      "மிளகாய்": 6710,
      "கட்டாய": 6711,
      "அக்கறை": 6712,
      "ென்றால்": 6713,
      "ஆர்ப்பா": 6714,
      "வரவு": 6715,
      "எதிர்க்கட்சி": 6716,
      "மரி": 6717,
      "யிற்ச": 6718,
      "நட்சத்திர": 6719,
      "உடலை": 6720,
      "ையுடன்": 6721,
      "ச்செய": 6722,
      "நடுக்க": 6723,
      "நின்று": 6724,
      "குறைந்தபட்ச": 6725,
      "ட்டியில்": 6726,
      "ப்படாத": 6727,
      "அற்பு": 6728,
      "ட்டுகள்": 6729,
      "தெரிவித்துக்": 6730,
      "போராட்டத்தில்": 6731,
      "முடிவுகள்": 6732,
      "இடையிலான": 6733,
      "த்துறைய": 6734,
      "பிரகா": 6735,
      "தள்ளுபடி": 6736,
      "வருத்த": 6737,
      "களிலிருந்து": 6738,
      "இருக்கிறோம்": 6739,
      "த்மா": 6740,
      "பரவி": 6741,
      "சூர்": 6742,
      "செய்கிற": 6743,
      "வாக்குறு": 6744,
      "ொட்டி": 6745,
      "நிர்ணயி": 6746,
      "ஆந்திர": 6747,
      "வளி": 6748,
      "வாயில": 6749,
      "மருத்துவக்": 6750,
      "ங்களைத்": 6751,
      "ங்களுக்கான": 6752,
      "என்பதே": 6753,
      "கரிக்க": 6754,
      "என்கிற": 6755,
      "சலு": 6756,
      "கேமரா": 6757,
      "நடைபெறு": 6758,
      "ட்டோ": 6759,
      "ண்ணு": 6760,
      "ஸை": 6761,
      "கேட்டுக்": 6762,
      "வெளியிட்டுள்ள": 6763,
      "விராட்": 6764,
      "ஆழ்ந்த": 6765,
      "of": 6766,
      "கட்டுப்படுத்த": 6767,
      "காட்டிய": 6768,
      "தாங்கள்": 6769,
      "முடிவில்": 6770,
      "கோப்பை": 6771,
      "பணிகளை": 6772,
      "மாருதி": 6773,
      "காரில்": 6774,
      "சதவிகித": 6775,
      "வீடுகள்": 6776,
      "நை": 6777,
      "திடீரெ": 6778,
      "ஃபி": 6779,
      "க்காட்ட": 6780,
      "அதிகாரம்": 6781,
      "ப்பதில்லை": 6782,
      "வயதில்": 6783,
      "க்குச்": 6784,
      "வலது": 6785,
      "இருவர்": 6786,
      "எச": 6787,
      "உள்ளா": 6788,
      "மேற்பட்டோர்": 6789,
      "எழுது": 6790,
      "ம்பர": 6791,
      "ர்களால்": 6792,
      "மேம்பாடு": 6793,
      "இல்லையா": 6794,
      "விரிவான": 6795,
      "மாநாட்டில்": 6796,
      "செய்துள்ளார்": 6797,
      "கான": 6798,
      "அளித்து": 6799,
      "இயக்கம்": 6800,
      "கவி": 6801,
      "ியோ": 6802,
      "ிடமிருந்து": 6803,
      "சாம்": 6804,
      "நிரந்தர": 6805,
      "வேலையை": 6806,
      "எமது": 6807,
      "உள்ப": 6808,
      "ப்பிரி": 6809,
      "உணர்ந்த": 6810,
      "பேதுரு": 6811,
      "அமைச்சர்கள்": 6812,
      "ஆசிரியர்": 6813,
      "நாட்களுக்கு": 6814,
      "பின்பற்று": 6815,
      "விடுத்து": 6816,
      "புரிந்துகொள்ள": 6817,
      "மாகப்": 6818,
      "உறுப்பினர்": 6819,
      "முதலி": 6820,
      "பத்து": 6821,
      "வழங்கப்பட்டுள்ளது": 6822,
      "வதிலும்": 6823,
      "பிரான்": 6824,
      "சாம்ப": 6825,
      "இளைஞர்": 6826,
      "2011": 6827,
      "யெகோவாவுக்கு": 6828,
      "கடமை": 6829,
      "க்கட": 6830,
      "திரைப்படம்": 6831,
      "அமைந்த": 6832,
      "த்திட": 6833,
      "விசாரணைக்கு": 6834,
      "பின்பற்ற": 6835,
      "ச்சத்து": 6836,
      "புஷ்": 6837,
      "காணப்படும்": 6838,
      "னோம்": 6839,
      "சேர்": 6840,
      "வித்தியாசத்தில்": 6841,
      "ஆசிய": 6842,
      "தேவன்": 6843,
      "கோயில்": 6844,
      "செய்யவும்": 6845,
      "என்பதில்": 6846,
      "பண்டி": 6847,
      "கடித": 6848,
      "துறையின்": 6849,
      "டிசம்ப": 6850,
      "வைக்கும்": 6851,
      "மீதும்": 6852,
      "டனான": 6853,
      "கண்டனம்": 6854,
      "யூனியன்": 6855,
      "க்குறி": 6856,
      "க்களில்": 6857,
      "கெட்ட": 6858,
      "நோக்கு": 6859,
      "போதுமான": 6860,
      "நலம்": 6861,
      "செய்யப்படு": 6862,
      "II": 6863,
      "த்திற": 6864,
      "குடும்பத்தின": 6865,
      "தோல்விய": 6866,
      "வெளிப்படைய": 6867,
      "ஏது": 6868,
      "பொறிய": 6869,
      "அக்டோ": 6870,
      "இழப்பு": 6871,
      "பெரும": 6872,
      "வனை": 6873,
      "பரப்ப": 6874,
      "துன்": 6875,
      "னாமா": 6876,
      "திருப்பி": 6877,
      "கொண்டிருக்கும்": 6878,
      "um": 6879,
      "கமி": 6880,
      "மிர": 6881,
      "பரப்பு": 6882,
      "வெங்காயம்": 6883,
      "்டு": 6884,
      "சிறுமி": 6885,
      "ங்கோ": 6886,
      "என்னவெ": 6887,
      "சான்": 6888,
      "பென்": 6889,
      "வாகனங்கள்": 6890,
      "மாணவர்களுக்கு": 6891,
      "ஏர்": 6892,
      "உன்னை": 6893,
      "திறந்து": 6894,
      "ங்கியது": 6895,
      "ானால்": 6896,
      "சொல்கிறார்": 6897,
      "மலையாளம்": 6898,
      "NW": 6899,
      "கட்சிய": 6900,
      "தொலைக்காட்சி": 6901,
      "தொழிற்சாலை": 6902,
      "அந்தத்": 6903,
      "விட்டதாக": 6904,
      "ஸ்டாலின்": 6905,
      "தைக்": 6906,
      "இளைஞர்கள்": 6907,
      "பக்": 6908,
      "சண்டை": 6909,
      "எரு": 6910,
      "ஆங்கிலம்": 6911,
      "ஃபோ": 6912,
      "நாட்டை": 6913,
      "இந்தியாவை": 6914,
      "39": 6915,
      "நகை": 6916,
      "ஸ்டா": 6917,
      "கிளை": 6918,
      "தமிழ்நாட்டில்": 6919,
      "முன்னேற்றம்": 6920,
      "சகல": 6921,
      "குடும்பம்": 6922,
      "மயமா": 6923,
      "ரயில": 6924,
      "வெளியில்": 6925,
      "முரு": 6926,
      "சாதி": 6927,
      "முதலாளி": 6928,
      "சான": 6929,
      "காண்ப": 6930,
      "மீக": 6931,
      "அருகே": 6932,
      "விளக்கம்": 6933,
      "இடையேயான": 6934,
      "அவனுடைய": 6935,
      "குடும்பத்தில்": 6936,
      "விலிருந்து": 6937,
      "ாகவே": 6938,
      "தொடர்ச்ச": 6939,
      "பெரிதும்": 6940,
      "பிரதிபலி": 6941,
      "ஆனா": 6942,
      "சுரே": 6943,
      "கொண்டுவர": 6944,
      "தளம்": 6945,
      "ஐரோப்பா": 6946,
      "இயக்குந": 6947,
      "ஆகி": 6948,
      "சிறப்பான": 6949,
      "ிற்கும்": 6950,
      "வற்று": 6951,
      "மைக்": 6952,
      "ப்பகுதி": 6953,
      "சிகிச்சைக்காக": 6954,
      "திட்டமிட்டு": 6955,
      "விமானம்": 6956,
      "செப்டம்பர்": 6957,
      "உண்மையிலேயே": 6958,
      "இரண்ட": 6959,
      "தொடங்கியது": 6960,
      "ிலு": 6961,
      "ச்சின்": 6962,
      "கணவர்": 6963,
      "கர்த்தர்": 6964,
      "மலே": 6965,
      "த்துக்கொள்ள": 6966,
      "வரான": 6967,
      "இஸ்லா": 6968,
      "பார்வை": 6969,
      "பட்டியல்": 6970,
      "சிரம": 6971,
      "ஆண்": 6972,
      "எட்டு": 6973,
      "க்கூட": 6974,
      "வேத": 6975,
      "புரிந்துணர்வு": 6976,
      "யாத": 6977,
      "தரப்பில்": 6978,
      "கலந்துரையா": 6979,
      "வாழ்வு": 6980,
      "ஜேர்": 6981,
      "எஸ்யூ": 6982,
      "அதிகரித்துள்ளது": 6983,
      "வழங்கிய": 6984,
      "ரையில்": 6985,
      "பிரதேசம்": 6986,
      "செவி": 6987,
      "லூர்": 6988,
      "த்திரை": 6989,
      "விலையில்": 6990,
      "நீள": 6991,
      "சோனியா": 6992,
      "பொருளாதாரம்": 6993,
      "முதலாவது": 6994,
      "நிரு": 6995,
      "கங்கள்": 6996,
      "எழுதினார்": 6997,
      "நேரடி": 6998,
      "ரியல்": 6999,
      "பலியான": 7000,
      "அழக": 7001,
      "நிறைவு": 7002,
      "கொடுத்தார்": 7003,
      "கடந்து": 7004,
      "விலங்கு": 7005,
      "பஸ்": 7006,
      "பராமரிப்பு": 7007,
      "ச்சல்": 7008,
      "நூற்றாண்டு": 7009,
      "்கட்டமைப்பு": 7010,
      "சுற்றுச்சூழல்": 7011,
      "விகித": 7012,
      "மூழ்க": 7013,
      "ைகள்": 7014,
      "பிரிக்க": 7015,
      "உருவாக்கி": 7016,
      "வருகை": 7017,
      "குந்த": 7018,
      "கரமான": 7019,
      "அல்லாஹ்": 7020,
      "க்கலை": 7021,
      "பூரண": 7022,
      "அதைத்": 7023,
      "பிடிக்கும்": 7024,
      "சந்திக்க": 7025,
      "பழக்க": 7026,
      "நியூசில": 7027,
      "ீங்க": 7028,
      "பெங்களூரு": 7029,
      "ஆப்கானிஸ்த": 7030,
      "பங்க": 7031,
      "திறமை": 7032,
      "ஆஜ": 7033,
      "க்ட": 7034,
      "ஏதோ": 7035,
      "வேறுபாடு": 7036,
      "சபா": 7037,
      "விரும்பவில்லை": 7038,
      "வாக்களி": 7039,
      "மாலை": 7040,
      "விலகி": 7041,
      "தேவன": 7042,
      "வரிசை": 7043,
      "சேது": 7044,
      "தைரிய": 7045,
      "தெரு": 7046,
      "தயாரித்து": 7047,
      "அதிரடி": 7048,
      "ஏற்படவில்லை": 7049,
      "ப்பணி": 7050,
      "உள்ளிட்டோர்": 7051,
      "அணுகு": 7052,
      "வீழ்ச்ச": 7053,
      "இச்சம்பவம்": 7054,
      "மாட்டோம்": 7055,
      "கண்": 7056,
      "இழு": 7057,
      "றது": 7058,
      "நான்கா": 7059,
      "சலே": 7060,
      "மல்லா": 7061,
      "ஏற்படுத்தும்": 7062,
      "ஊர": 7063,
      "அவளை": 7064,
      "எனக்குத்": 7065,
      "அக்": 7066,
      "பரபரப்பு": 7067,
      "தாக்க": 7068,
      "ct": 7069,
      "ஏசா": 7070,
      "விட்டரில்": 7071,
      "வையை": 7072,
      "அப்படிப்பட்ட": 7073,
      "197": 7074,
      "இடத்திலேயே": 7075,
      "தோட்ட": 7076,
      "மற்றவர்கள்": 7077,
      "முழுமையான": 7078,
      "துணி": 7079,
      "தள்ளி": 7080,
      "வாய்ப்புகள்": 7081,
      "55": 7082,
      "குறைந்து": 7083,
      "சந்தர்ப்ப": 7084,
      "பில்லியன்": 7085,
      "டான": 7086,
      "காணொ": 7087,
      "க்குள்ள": 7088,
      "க்கப்படவில்லை": 7089,
      "வீச்ச": 7090,
      "முடிவுக்கு": 7091,
      "ீஸ்": 7092,
      "கட்டுப்பாட்டு": 7093,
      "கட்டும்": 7094,
      "em": 7095,
      "மதிய": 7096,
      "த்திலே": 7097,
      "அங்கிருந்து": 7098,
      "உயர்வு": 7099,
      "தமிழகம்": 7100,
      "தொகுதிய": 7101,
      "க்களும்": 7102,
      "வாரியம்": 7103,
      "லைன்": 7104,
      "இத்திட்டத்தின்": 7105,
      "வரவேற்பு": 7106,
      "கத்தில்": 7107,
      "அத்தியா": 7108,
      "க்ச": 7109,
      "உயிரிழப்பு": 7110,
      "விண்ணப்பி": 7111,
      "உள்ளே": 7112,
      "விஷயத்தில்": 7113,
      "சக்கர": 7114,
      "இதைத்": 7115,
      "ஜப்பான": 7116,
      "ரிஸ்": 7117,
      "தொழில்நுட்பம்": 7118,
      "ல்களில்": 7119,
      "நண்பர்கள்": 7120,
      "மாற்றிய": 7121,
      "நிதியா": 7122,
      "உயிரிழந்தனர்": 7123,
      "புனி": 7124,
      "அழுத்தம்": 7125,
      "அவற்றில்": 7126,
      "47": 7127,
      "ஆசியா": 7128,
      "பெயரில்": 7129,
      "us": 7130,
      "்ப்": 7131,
      "ஞ்சாலை": 7132,
      "அட்டை": 7133,
      "பார்க்கலாம்": 7134,
      "சூழல்": 7135,
      "மனுஷ": 7136,
      "அவரும்": 7137,
      "பூங்கா": 7138,
      "கவுன்": 7139,
      "க்காத": 7140,
      "வசூலி": 7141,
      "பிரான்ஸ்": 7142,
      "ப்பய": 7143,
      "கமாக": 7144,
      "தங்கம்": 7145,
      "மூப்ப": 7146,
      "படத்திற்கு": 7147,
      "அப்": 7148,
      "சீக்கிர": 7149,
      "செயற்க": 7150,
      "அவருடன்": 7151,
      "கிறான்": 7152,
      "ீவ்": 7153,
      "அமைப்புகள்": 7154,
      "ஸ்டே": 7155,
      "நிலையான": 7156,
      "செய்தியாள": 7157,
      "காரணங்கள்": 7158,
      "நெடுஞ்சாலை": 7159,
      "நவம்பர்": 7160,
      "42": 7161,
      "நிகழ்வில்": 7162,
      "நடுத்த": 7163,
      "ஸ்தா": 7164,
      "ராஜினாமா": 7165,
      "நகர்ப்புற": 7166,
      "அக்டோபர்": 7167,
      "கேள்விகள்": 7168,
      "ஹர்": 7169,
      "பரபரப்பை": 7170,
      "ற்றை": 7171,
      "போடு": 7172,
      "சமயங்களில்": 7173,
      "ங்கர்": 7174,
      "குல": 7175,
      "பைபிளை": 7176,
      "கணினி": 7177,
      "அரசியல": 7178,
      "ானி": 7179,
      "கொல்க": 7180,
      "மோதல்": 7181,
      "கட்சிகள்": 7182,
      "உள்பட": 7183,
      "டிஜி": 7184,
      "ஒன்றில்": 7185,
      "49": 7186,
      "வருவது": 7187,
      "தீர்மானம்": 7188,
      "்கறி": 7189,
      "ீழ்": 7190,
      "வியது": 7191,
      "செயல்படும்": 7192,
      "ஏற்றுக்": 7193,
      "வைக்கப்பட்ட": 7194,
      "பிரிட்ட": 7195,
      "பகு": 7196,
      "ையிலும்": 7197,
      "ஜூலை": 7198,
      "வழக்கை": 7199,
      "இறக்கு": 7200,
      "றிந்து": 7201,
      "நபர்கள்": 7202,
      "ாந்த": 7203,
      "இயக்கி": 7204,
      "வளர்ந்து": 7205,
      "தீவு": 7206,
      "சர்க்கரை": 7207,
      "டிரை": 7208,
      "குறைவான": 7209,
      "ர்களையும்": 7210,
      "கோப்பு": 7211,
      "உயிர": 7212,
      "ேல்": 7213,
      "பள்ளியில்": 7214,
      "கவல": 7215,
      "தணி": 7216,
      "டிசம்பர்": 7217,
      "ஒத்தி": 7218,
      "பாண்ட": 7219,
      "விண்வெளி": 7220,
      "பதிவிட்டு": 7221,
      "பைக்": 7222,
      "த்தாள்": 7223,
      "நேற்று": 7224,
      "தோற்ற": 7225,
      "பனி": 7226,
      "பார்க்கிற": 7227,
      "ஆண்டுகள்": 7228,
      "மற்றவர்கள": 7229,
      "வருடைய": 7230,
      "பிரசா": 7231,
      "இடம்பெற்ற": 7232,
      "ப்பையும்": 7233,
      "ஆனது": 7234,
      "விரும்புகிறேன்": 7235,
      "ஆப்பிரிக்கா": 7236,
      "அறிகுறி": 7237,
      ".)": 7238,
      "குறித்தும்": 7239,
      "ஆர்வம்": 7240,
      "ரசி": 7241,
      "சுல": 7242,
      "அளிக்கிறது": 7243,
      "புத்தகம்": 7244,
      "விடுத்த": 7245,
      "த்துக்கொண்ட": 7246,
      "கொள்வது": 7247,
      "சர்ச்சை": 7248,
      "அதைக்": 7249,
      "எச்பி": 7250,
      "ப்ள": 7251,
      "ராமன்": 7252,
      "வயதான": 7253,
      "ண்டர்": 7254,
      "சோதன": 7255,
      "தானிய": 7256,
      "ஷெ": 7257,
      "சினிமாவில்": 7258,
      "ருக்கான": 7259,
      "ra": 7260,
      "தில": 7261,
      "கொல்கத்தா": 7262,
      "ர்தான்": 7263,
      "முன்னெடுத்து": 7264,
      "னையில்": 7265,
      "முடியாமல்": 7266,
      "தயார்": 7267,
      "ஆபத்து": 7268,
      "ப்ரீ": 7269,
      "தகப்ப": 7270,
      "நெருக்கடி": 7271,
      "மையா": 7272,
      "அன": 7273,
      "ப்படுத்தப்பட்ட": 7274,
      "கனவு": 7275,
      "எங்கு": 7276,
      "காயமடைந்து": 7277,
      "கரை": 7278,
      "பேரும்": 7279,
      "கொண்டுள்ள": 7280,
      "தொகுப்பு": 7281,
      "2012": 7282,
      "கோரி": 7283,
      "அமல்": 7284,
      "நிலநடுக்க": 7285,
      "ழ்ந்து": 7286,
      "சோசலிச": 7287,
      "ஓர": 7288,
      "ப்படுகின்றது": 7289,
      "வாரி": 7290,
      "சேமிப்பு": 7291,
      "முரண": 7292,
      "அனைத்தையும்": 7293,
      "னாகிய": 7294,
      "விளைவாக": 7295,
      "ரஜினிகாந்த்": 7296,
      "மகள": 7297,
      "போதே": 7298,
      "என்எம்": 7299,
      "சீர்திருத்த": 7300,
      "வைகள்": 7301,
      "பற்றியும்": 7302,
      "ஆட்சிய": 7303,
      "க்கிழமை": 7304,
      "எவரும்": 7305,
      "பாபு": 7306,
      "காரை": 7307,
      "நாண": 7308,
      "கம்ப": 7309,
      "தனக்கு": 7310,
      "உத்த": 7311,
      "கொரி": 7312,
      "மாற்றங்கள்": 7313,
      "வருமானம்": 7314,
      "என்றே": 7315,
      "மதிப்பி": 7316,
      "ட்டிக்": 7317,
      "ப்படுத்துகிறது": 7318,
      "அரசாங்கத்தின்": 7319,
      "பாடல்": 7320,
      "கடவுளை": 7321,
      "கோயில": 7322,
      "எல்லாரும்": 7323,
      "எதுவு": 7324,
      "மையங்கள்": 7325,
      "திட்டத்தில்": 7326,
      "சபையில்": 7327,
      "விபர": 7328,
      "சாலைகள்": 7329,
      "கொண்டாட": 7330,
      "நிலம்": 7331,
      "ஜெப": 7332,
      "தற்காலி": 7333,
      "அனுபவம்": 7334,
      "நோயாளி": 7335,
      "திறந்த": 7336,
      "பியா": 7337,
      "ும்படி": 7338,
      "மாநிலங்கள்": 7339,
      "கையாள": 7340,
      "ஈடுபடு": 7341,
      "ஹைதரா": 7342,
      "கம்யூனி": 7343,
      "வருமே": 7344,
      "ஷிங்ட": 7345,
      "சீஷ": 7346,
      "டாடா": 7347,
      "பரவல": 7348,
      "குற்றவாளி": 7349,
      "முக்கியமாக": 7350,
      "ஜனவரி": 7351,
      "மகிழ்ச்சிய": 7352,
      "எகி": 7353,
      "முர": 7354,
      "கார்ப": 7355,
      "மும்பையில்": 7356,
      "ஸ்கோ": 7357,
      "வையாக": 7358,
      "சலுகை": 7359,
      "பின்வரும்": 7360,
      "பொதுவான": 7361,
      "திறனை": 7362,
      "நாடுகளுக்கு": 7363,
      "ஜன்": 7364,
      "கிறி": 7365,
      "ஆன்மீக": 7366,
      "கல்யா": 7367,
      "எரிசக்தி": 7368,
      "தொகுதிகளில்": 7369,
      "தமிழில்": 7370,
      "தொகுதியில்": 7371,
      "விமர்சன": 7372,
      "சல": 7373,
      "தங்களுக்கு": 7374,
      "கேஷ்": 7375,
      "்போ": 7376,
      "முயன்ற": 7377,
      "வினா": 7378,
      "விஸ்": 7379,
      "ப்பதன்": 7380,
      "அரசியலில்": 7381,
      "ஆணை": 7382,
      "ங்கால": 7383,
      "ைத்": 7384,
      "கிராமப்புற": 7385,
      "பிஎஸ்": 7386,
      "போனது": 7387,
      "விவாத": 7388,
      "காலமாக": 7389,
      "வதையும்": 7390,
      "அவர்களால்": 7391,
      "பஞ்ச": 7392,
      "ா்கள்": 7393,
      "நிலையங்கள்": 7394,
      "சேர்த்த": 7395,
      "250": 7396,
      "கழிவு": 7397,
      "பொருட்டு": 7398,
      "பொறியியல்": 7399,
      "கட்டமை": 7400,
      "காட்டுகிறது": 7401,
      "சய": 7402,
      "தொடா்ப": 7403,
      "செய்தியை": 7404,
      "உடன்படிக்க": 7405,
      "கலைஞ": 7406,
      "அரசால்": 7407,
      "எஃப்": 7408,
      "கபூர்": 7409,
      "்கின்றனர்": 7410,
      "அட்": 7411,
      "ஆசா": 7412,
      "ஊழல்": 7413,
      "சிதம்ப": 7414,
      "பெயரை": 7415,
      "நய": 7416,
      "டென்": 7417,
      "கனமழை": 7418,
      "உத்திய": 7419,
      "தில்லியில்": 7420,
      "ஸ்பு": 7421,
      "க்கத்தில்": 7422,
      "ஏசாயா": 7423,
      "மட": 7424,
      "உதவுகிறது": 7425,
      "பேராசிரிய": 7426,
      "குரல்": 7427,
      "முடிந்து": 7428,
      "சாப்பிட": 7429,
      "கருத்தில்": 7430,
      "இப்படத்தை": 7431,
      "யோகா": 7432,
      "நீதிமொழிகள்": 7433,
      "அப்பகுதியில்": 7434,
      "ப்படுவது": 7435,
      "ப்பட்டுள்ளனர்": 7436,
      "வாஷிங்ட": 7437,
      "திருச்சி": 7438,
      "சர்ச்ச": 7439,
      "பார்ப்போம்": 7440,
      "பொறுப்பே": 7441,
      "கழகம்": 7442,
      "எந்தவித": 7443,
      "ஸ்கூ": 7444,
      "பேச்ச": 7445,
      "தரம்": 7446,
      "ந்தன": 7447,
      "புத்தி": 7448,
      "பெய்து": 7449,
      "....": 7450,
      "எபிர": 7451,
      "வியாபார": 7452,
      "டெட்": 7453,
      "வீரா": 7454,
      "ஏற்றுமதி": 7455,
      "ஃபே": 7456,
      "மாநாடு": 7457,
      "மாடல்": 7458,
      "நேசி": 7459,
      "அளித்தார்": 7460,
      "ஆதரி": 7461,
      "கைப்பற்றிய": 7462,
      "சகி": 7463,
      "செய்யப்படுகிறது": 7464,
      "குழந்தைகளுக்கு": 7465,
      "இந்தியப்": 7466,
      "கட்டளை": 7467,
      "இன்னமும்": 7468,
      "ங்களு": 7469,
      "பலன்": 7470,
      "பணத்தை": 7471,
      "வலைதளங்களில்": 7472,
      "பிரச்சினைகள்": 7473,
      "ஆக்கிர": 7474,
      "க்கணி": 7475,
      "வெவ்": 7476,
      "ஜப்பான்": 7477,
      "மேய": 7478,
      "வெல்ல": 7479,
      "கௌ": 7480,
      "சுற்ற": 7481,
      "கொள்ளவில்லை": 7482,
      "தகவலை": 7483,
      "உலகளா": 7484,
      "….": 7485,
      "ஆடு": 7486,
      "கையாக": 7487,
      "சிறுபா": 7488,
      "துண்டு": 7489,
      "என்பதையும்": 7490,
      "முன்னி": 7491,
      "நற்": 7492,
      "எடை": 7493,
      "கூறுகிறது": 7494,
      "விறு": 7495,
      "தொடரும்": 7496,
      "ிலா": 7497,
      "தொலைபேசி": 7498,
      "வானிலை": 7499,
      "மீறி": 7500,
      "பட்டம்": 7501,
      "கட்டிட": 7502,
      "நுகர்": 7503,
      "ஜோடியாக": 7504,
      "மஞ்சள்": 7505,
      "அணியில்": 7506,
      "நெருங்கிய": 7507,
      "ri": 7508,
      "ையொட்டி": 7509,
      "த்யா": 7510,
      "உருவாக்கிய": 7511,
      "ென்று": 7512,
      "ரிலீ": 7513,
      "ிக்": 7514,
      "அம்ப": 7515,
      "எங்களை": 7516,
      "மனோ": 7517,
      "மன்மோகன்": 7518,
      "ஆய்வ": 7519,
      "அணிக்கு": 7520,
      "வதாகவும்": 7521,
      "லாப": 7522,
      "அணிகள்": 7523,
      "வேலி": 7524,
      "நட்பு": 7525,
      "இரட்டை": 7526,
      "உலகளாவிய": 7527,
      "நாளுக்கு": 7528,
      "ஆக்": 7529,
      "ாகப்": 7530,
      "சாய்": 7531,
      "ஆசிரியர்கள்": 7532,
      "64": 7533,
      "ஆஃப்": 7534,
      "துன்ப": 7535,
      "இருவருக்கும்": 7536,
      "எல்லோரும்": 7537,
      "லாபம்": 7538,
      "சம்பவங்கள்": 7539,
      "ஆலய": 7540,
      "த்திக்": 7541,
      "ஆகஸ்ட்": 7542,
      "த்திற்குள்": 7543,
      "ag": 7544,
      "மோசே": 7545,
      "உரிமைய": 7546,
      "என்பவர்": 7547,
      "இருப்பதால்": 7548,
      "சங்கம்": 7549,
      "வேலையில்": 7550,
      "ிருந்தேன்": 7551,
      "தடைய": 7552,
      "இண": 7553,
      "மின்னணு": 7554,
      "அர்ப்ப": 7555,
      "ப்பேன்": 7556,
      "வெற்றிகரமாக": 7557,
      "வாழ்ந்த": 7558,
      "பிளா": 7559,
      "க்கும்போது": 7560,
      "மொபை": 7561,
      "வெளியான": 7562,
      "அறிவித்துள்ளது": 7563,
      "ங்கானா": 7564,
      "யோகி": 7565,
      "வலைத்தள": 7566,
      "டாலர்": 7567,
      "இலக்கிய": 7568,
      "ப்பார்கள்": 7569,
      "வியாபா": 7570,
      "ஆளுநர்": 7571,
      "கனடா": 7572,
      "வங்காள": 7573,
      "காய்கறி": 7574,
      "கற்ற": 7575,
      "முடிவெ": 7576,
      "னீ": 7577,
      "எருசலே": 7578,
      "யை": 7579,
      "கடற்க": 7580,
      "சீதா": 7581,
      "கல்விய": 7582,
      "சென்றார்": 7583,
      "ஒருவரை": 7584,
      "இதுபற்றி": 7585,
      "நலன்": 7586,
      ",\"\"": 7587,
      "குறிப்பு": 7588,
      "டாஸ்": 7589,
      "னது": 7590,
      "குழுவின்": 7591,
      "சேனா": 7592,
      "ஆஸ்திரேலிய": 7593,
      "இங்க": 7594,
      "பரிசீ": 7595,
      "காது": 7596,
      "கற்பனை": 7597,
      "பகுதிகள்": 7598,
      "மணிக்கு": 7599,
      "கதி": 7600,
      "கொரியா": 7601,
      "மண்": 7602,
      "சுகாதாரம்": 7603,
      "வேட்பாளர்": 7604,
      "கிறீர்கள்": 7605,
      "காணப்படுகிறது": 7606,
      "விரிவு": 7607,
      "தனியாக": 7608,
      "காலங்களில்": 7609,
      "சந்தையில்": 7610,
      "டமிருந்து": 7611,
      "அடித்து": 7612,
      "உள்ளதாக": 7613,
      "உப": 7614,
      "மட்டுமல்லா": 7615,
      "கண்காணிப்பு": 7616,
      "எரிவாயு": 7617,
      "அச": 7618,
      "ஈரான்": 7619,
      "அரசி": 7620,
      "அநேகர்": 7621,
      "கோர்ட்ட": 7622,
      "என்றாள்": 7623,
      "தோன்று": 7624,
      "க்களுக்கு": 7625,
      "கட்டுப்பாடு": 7626,
      "வொ": 7627,
      "அதைச்": 7628,
      "பற்றா": 7629,
      "சேத": 7630,
      "நியூசிலாந்து": 7631,
      "ut": 7632,
      "மேலாக": 7633,
      "தனு": 7634,
      "சாரா": 7635,
      "மிற": 7636,
      "விசாரி": 7637,
      "தேவைப்படும்": 7638,
      "பண்ணி": 7639,
      "அடைந்தனர்": 7640,
      "னுக்கும்": 7641,
      "ஷன": 7642,
      "சடல": 7643,
      "தூக்கி": 7644,
      "அலி": 7645,
      "ாயம்": 7646,
      "காய்ச்ச": 7647,
      "சுரேஷ்": 7648,
      "இடத்துக்கு": 7649,
      "இடம்பெற்று": 7650,
      "ஆண்டுக்கு": 7651,
      "அமையும்": 7652,
      "பூண்டு": 7653,
      "மட்டுமின்றி": 7654,
      "இருப்பதை": 7655,
      "ச்சாரம்": 7656,
      "டிஜிட்டல்": 7657,
      "ப்பினை": 7658,
      "எபிரெய": 7659,
      "லையும்": 7660,
      "மனிதன": 7661,
      "ஹித்": 7662,
      "ஆகையால்": 7663,
      "ங்ஸ்": 7664,
      "அர்ப்பணி": 7665,
      "ul": 7666,
      "ர்களுக்கான": 7667,
      "பெய்ய": 7668,
      "யிற்சி": 7669,
      "மேற்கொள்ளப்பட்டு": 7670,
      "ையிலிருந்து": 7671,
      "டிக்": 7672,
      "ன்றும்": 7673,
      "மென": 7674,
      "கொடூ": 7675,
      "நேபா": 7676,
      "பரிசோதனைக்காக": 7677,
      "தாக்குதலுக்கு": 7678,
      "நீட்டி": 7679,
      "/-": 7680,
      "ர்பு": 7681,
      "முறைகளை": 7682,
      "இதைப்": 7683,
      "கொரிந்திய": 7684,
      "சாரி": 7685,
      "கணவன்": 7686,
      "அவளுக்கு": 7687,
      "உணர": 7688,
      "முன்னிட்டு": 7689,
      ",''": 7690,
      "ரியின்": 7691,
      "வாயிலாக": 7692,
      "ியையும்": 7693,
      "பிரச்சார": 7694,
      "என்பதால்": 7695,
      "ளவுக்கு": 7696,
      "பூமியில்": 7697,
      "அறிவுரை": 7698,
      "சம்பவத்தில்": 7699,
      "ியைத்": 7700,
      "பழனி": 7701,
      "வசிய": 7702,
      "பிரகாஷ்": 7703,
      "மோதி": 7704,
      "எதிர்கொள்ள": 7705,
      "தீவிரவாத": 7706,
      "மாசு": 7707,
      "அப்புற": 7708,
      "வாழ்ந்து": 7709,
      "எச்": 7710,
      "பேரை": 7711,
      "இந்தியன்": 7712,
      "600": 7713,
      "வள்": 7714,
      "தொரு": 7715,
      "சாப்பிடு": 7716,
      "க்காடு": 7717,
      "விடயம்": 7718,
      "விஷயங்கள்": 7719,
      "இதுவும்": 7720,
      "இடத்தை": 7721,
      "தீபாவ": 7722,
      "ங்களுக்காக": 7723,
      "களிடம்": 7724,
      "43": 7725,
      "மண்ண": 7726,
      "துறைமுக": 7727,
      "வெவ்வேறு": 7728,
      "குறைவு": 7729,
      "பூமிய": 7730,
      "மிகக்": 7731,
      "புனித": 7732,
      "சமாளி": 7733,
      "த்ரா": 7734,
      "ஆய": 7735,
      "போலீசில்": 7736,
      "யுடு": 7737,
      "கட்டட": 7738,
      "அறிவித்தார்": 7739,
      "ப்பள்ளி": 7740,
      "மக்களும்": 7741,
      "சான்றிதழ்": 7742,
      "ஆக்கிரமி": 7743,
      "நல்லா": 7744,
      "படுகாயம்": 7745,
      "சொல்வது": 7746,
      "டொனால்": 7747,
      "மாளி": 7748,
      "பொலிஸா": 7749,
      "விக்கெட்": 7750,
      "நிலவு": 7751,
      "தொழிற்சங்க": 7752,
      "செய்யுங்கள்": 7753,
      "்கீழ்": 7754,
      "த்துக்கான": 7755,
      "ட்சியில்": 7756,
      "கூறுகிறார்": 7757,
      "புகழ": 7758,
      "துய": 7759,
      "சிரியா": 7760,
      "நடித்துள்ளனர்": 7761,
      "திரையு": 7762,
      "மால": 7763,
      "ஆரம்பத்தில்": 7764,
      "நிதியுதவி": 7765,
      "கோட்ப": 7766,
      "195": 7767,
      "ல்கள": 7768,
      "மக்களி": 7769,
      "வருவாய": 7770,
      "மனிதன்": 7771,
      "பவர்கள்": 7772,
      "ரியை": 7773,
      "வேதன": 7774,
      "வெங்க": 7775,
      "திட்டமிட": 7776,
      "பெர்": 7777,
      "விளம்பர": 7778,
      "கிரேக்க": 7779,
      "படியாக": 7780,
      "அளிக்கப்பட்டது": 7781,
      "மஹிந்திரா": 7782,
      "நடிப்பில்": 7783,
      "அனைவரையும்": 7784,
      "உரிமைகள்": 7785,
      "ஆற்றல்": 7786,
      "46": 7787,
      "ஸ்டார்": 7788,
      "நம்புகிறேன்": 7789,
      "பங்களிப்பு": 7790,
      "எந்தப்": 7791,
      "ஆகியவற்றில்": 7792,
      "சுக்கு": 7793,
      "அடைந்து": 7794,
      "வார்த்தைகள்": 7795,
      "ங்களா": 7796,
      "இரங்கல்": 7797,
      "வழக்குகள்": 7798,
      "ர்வை": 7799,
      "மூன்றாம்": 7800,
      "அபிஷே": 7801,
      "இக்க": 7802,
      "விடை": 7803,
      "நடப்பு": 7804,
      "செயல்படுத்து": 7805,
      "ஆராய்": 7806,
      "கந்த": 7807,
      "சமான": 7808,
      "வசூல்": 7809,
      "துறைகளில்": 7810,
      "தேவி": 7811,
      "வெள்ளி": 7812,
      "எதிர்பார்த்த": 7813,
      "த்தொகை": 7814,
      "உன்ன": 7815,
      "வைத்துக்": 7816,
      "வழக்கறி": 7817,
      "கடவுளுக்கு": 7818,
      "நதி": 7819,
      "தூள்": 7820,
      "ஹாசன்": 7821,
      "வேகம்": 7822,
      "மறுபடியும்": 7823,
      "முதலாளித்துவ": 7824,
      "ஊட்ட": 7825,
      "லைப்": 7826,
      "இவ்வளவு": 7827,
      "தளபதி": 7828,
      "அமைய": 7829,
      "பாட்டை": 7830,
      "னியர்": 7831,
      "பரிதாப": 7832,
      "இருக்கின்றனர்": 7833,
      ",”": 7834,
      "த்துக்காக": 7835,
      "போட்டியிடு": 7836,
      "என்றாா்": 7837,
      "கொழு": 7838,
      "அதன்படி": 7839,
      "ோட": 7840,
      "தயவு": 7841,
      "பகுதியாக": 7842,
      "ce": 7843,
      "சுரங்க": 7844,
      "எடுக்கவில்லை": 7845,
      "எளிதில்": 7846,
      "அளித்துள்ளது": 7847,
      "எளிய": 7848,
      "குர": 7849,
      "கலந்துகொண்டனர்": 7850,
      "வெளியாகவில்லை": 7851,
      "ருமான": 7852,
      "உயிர்த்த": 7853,
      "பள்ளிகள்": 7854,
      "த்ரி": 7855,
      "லிமி": 7856,
      "நிறங்கள்": 7857,
      "விருத்தி": 7858,
      "டீஸ்பூன்": 7859,
      "தங்களை": 7860,
      "விற்க": 7861,
      "ஒழுங்க": 7862,
      "எதற்காக": 7863,
      "ஏனைய": 7864,
      "தடுப்பூ": 7865,
      "போகும்": 7866,
      "தின்": 7867,
      "பிஎச்பி": 7868,
      "கோள": 7869,
      "முன்னிலை": 7870,
      "செயல்த": 7871,
      "விட்டார்கள்": 7872,
      "பூர்த்தி": 7873,
      "செய்யப்பட்டார்": 7874,
      "மையின்": 7875,
      "த்திற்குப்": 7876,
      "ஈரான": 7877,
      "தரவு": 7878,
      "வழங்கப்பட்டு": 7879,
      "வெளியாகியுள்ளது": 7880,
      "ரீதியான": 7881,
      "பிரபலமான": 7882,
      "பல்கலைக்கழகம்": 7883,
      "உள்ளடக்கிய": 7884,
      "க்கக்": 7885,
      "சும": 7886,
      "பேரிட": 7887,
      "அதேபோல்": 7888,
      "பங்கேற்று": 7889,
      "நல்": 7890,
      "தொடா்": 7891,
      "உலகப்": 7892,
      "காரின்": 7893,
      "ஆடி": 7894,
      "ஒன்றாகும்": 7895,
      "யெகோவாவை": 7896,
      "தெரிவிக்கப்பட்டது": 7897,
      "ிருந்தார்கள்": 7898,
      "அடங்கும்": 7899,
      "மாகிய": 7900,
      "ஆண்டின்": 7901,
      "வாழ்வா": 7902,
      "க்கப்படுகின்றன": 7903,
      "யினும்": 7904,
      "கைவிட": 7905,
      "இந்தோ": 7906,
      "தெரிவித்துள்ள": 7907,
      "ரெட்டி": 7908,
      "படுகாயமடைந்த": 7909,
      "ஒன்றுக்கு": 7910,
      "விலுள்ள": 7911,
      "உத்தியோக": 7912,
      "காலா": 7913,
      "ல்லாத": 7914,
      "அலுவலர்": 7915,
      "ொண்ட": 7916,
      "குழா": 7917,
      "திலிருந்து": 7918,
      "வசித்து": 7919,
      "ஹோண்டா": 7920,
      "நீக்கம்": 7921,
      "த்தில": 7922,
      "சரக்கு": 7923,
      "நிர்மலா": 7924,
      "ர்ஜி": 7925,
      "க்ட்": 7926,
      "எனக்கும்": 7927,
      "நிறுவனங்களின்": 7928,
      "ஃப": 7929,
      "னையாக": 7930,
      "வெளியாகும்": 7931,
      "நாடக": 7932,
      "விவசாயிகளின்": 7933,
      "வீட்டுக்கு": 7934,
      "ஒழுக்க": 7935,
      "மெட்": 7936,
      "முகமது": 7937,
      "வரையிலான": 7938,
      "பதிந்து": 7939,
      "அனுப்பிய": 7940,
      "est": 7941,
      "உள்ளாட்சி": 7942,
      "களமிற": 7943,
      "நிகழ": 7944,
      "யாருக்கு": 7945,
      "மொபைல்": 7946,
      "திடீரென": 7947,
      "செயற்கை": 7948,
      "என்பதற்கு": 7949,
      "சங்கர்": 7950,
      "படித்து": 7951,
      "ப்படுகிற": 7952,
      "மாநிலங்கள": 7953,
      "கற்றுக்கொள்ள": 7954,
      "கொண்டிருக்க": 7955,
      "காட்டும்": 7956,
      "ூரில்": 7957,
      "சுறு": 7958,
      "மிடம்": 7959,
      "அருண்": 7960,
      "ஆபத்தான": 7961,
      "றிவு": 7962,
      "கொள்முதல்": 7963,
      "பணியாளர்கள்": 7964,
      "இத்திட்டம்": 7965,
      "முன்னோ": 7966,
      "வீட்டை": 7967,
      "ரியானா": 7968,
      "விசாரணையை": 7969,
      "தங்களின்": 7970,
      "டாக்ட": 7971,
      "நினைத்து": 7972,
      "கன்னடம்": 7973,
      "விவாக": 7974,
      "ப்படியாக": 7975,
      "படையினர்": 7976,
      "கொரிந்தியர்": 7977,
      "ஸ்டோ": 7978,
      "சேதுபதி": 7979,
      "ன்பது": 7980,
      "இதன்போது": 7981,
      "ிலிருந்தும்": 7982,
      "ஏக்கர்": 7983,
      "முடிகிறது": 7984,
      "நடவடிக்கையும்": 7985,
      "கிரா": 7986,
      "பிரெஞ்சு": 7987,
      "புகைப்படம்": 7988,
      "கிர": 7989,
      "ந்தும்": 7990,
      "மறந்து": 7991,
      "மனிதர்கள்": 7992,
      "இலட்ச": 7993,
      "மாபெரும்": 7994,
      "வற": 7995,
      "ர்த்": 7996,
      "யாதவ்": 7997,
      "விசாரணையில்": 7998,
      "குடியிருப்பு": 7999,
      "எதிர்பார்ப்பு": 8000,
      "க்குமா": 8001,
      "ப்புக்கு": 8002,
      "ப்ட்": 8003,
      "ந்தோ": 8004,
      "வீதம்": 8005,
      "வளர்க்க": 8006,
      "விழுந்து": 8007,
      "பயன்பாடு": 8008,
      "விடுகிறது": 8009,
      "எம்எல்": 8010,
      "க்டர்": 8011,
      "எச்சரிக்க": 8012,
      "ஷர்": 8013,
      "வண்ணம்": 8014,
      "காதல": 8015,
      "சஞ்ச": 8016,
      "இயக்குன": 8017,
      "சுவாமி": 8018,
      "தாவீது": 8019,
      "ம்கள்": 8020,
      "ிருப்பதாவது": 8021,
      "வாட": 8022,
      "அதிஷ்ட": 8023,
      "மன்னிப்பு": 8024,
      "ஸு": 8025,
      "ானே": 8026,
      "செயலாள": 8027,
      "சதவிகிதம்": 8028,
      "சிந்தனை": 8029,
      "கவனமாக": 8030,
      "யாரா": 8031,
      "சதவீதமாக": 8032,
      "முடிவ": 8033,
      "எனப்படும்": 8034,
      "விலக்கு": 8035,
      "என்பதைக்": 8036,
      "அவ்வ": 8037,
      "உயிரிழந்தார்": 8038,
      "சமைய": 8039,
      "ட்டப்பட்ட": 8040,
      "அகர்": 8041,
      "ச்சிற": 8042,
      "இருந்தும்": 8043,
      "ழில்": 8044,
      "ரஸ்": 8045,
      "ட்டுக்கு": 8046,
      "மொழியில்": 8047,
      "டான்": 8048,
      "ஈடுபட்டனர்": 8049,
      "அமலா": 8050,
      "விழிப்புணர்வு": 8051,
      "உபயோகி": 8052,
      "ஐபிஎல்": 8053,
      "தொடங்கு": 8054,
      "பெண்கள": 8055,
      "எளிதாக": 8056,
      "வென்றது": 8057,
      "ரில": 8058,
      "நாயுடு": 8059,
      "மின்சாரம்": 8060,
      "வங்கிகள்": 8061,
      "சகோதரர்": 8062,
      "இவற்றை": 8063,
      "சந்தித்த": 8064,
      "அப்படித்தான்": 8065,
      "வழங்குதல்": 8066,
      "ராவ்": 8067,
      "லக்": 8068,
      "அதிகள": 8069,
      "குறைந்தது": 8070,
      "அவரால்": 8071,
      "அவ்வாற": 8072,
      "வைட்ட": 8073,
      "சேலம்": 8074,
      "நூற்று": 8075,
      "சிரி": 8076,
      "கிடைக்கிறது": 8077,
      "இளைய": 8078,
      "இறக்குமதி": 8079,
      "ஆஸ்ப": 8080,
      "வழிய": 8081,
      "சிறும": 8082,
      "முறையான": 8083,
      "வசதிகளை": 8084,
      "வேதனை": 8085,
      "எதிர்பார்ப்ப": 8086,
      "பதிவாக": 8087,
      "கீழ்ப்படி": 8088,
      "கொடூர": 8089,
      "வாய்ப்பை": 8090,
      "ஷோ": 8091,
      "தேவனுடைய": 8092,
      "கிலோமீட்டர்": 8093,
      "ஏதே": 8094,
      "அறிவித்த": 8095,
      "விவகாரத்தில்": 8096,
      "சாத்தான": 8097,
      "நித்திய": 8098,
      "முடிவை": 8099,
      "முறையீடு": 8100,
      "நடுத்தர": 8101,
      "01": 8102,
      "வரம்பு": 8103,
      "இருந்தேன்": 8104,
      "பாக்": 8105,
      "எடுக்கும்": 8106,
      "ay": 8107,
      "அய": 8108,
      "எல்லாவற்றையும்": 8109,
      "ஸ்வர்": 8110,
      "ஆண்டுகளாக": 8111,
      "துடி": 8112,
      "பட்டது": 8113,
      "போதி": 8114,
      "த்தலைவர்": 8115,
      "ர்பி": 8116,
      "முழ": 8117,
      "கண்டிப்பாக": 8118,
      "சாதக": 8119,
      "அதற்க": 8120,
      "வெளியேற்ற": 8121,
      "எத": 8122,
      "இவற்றில்": 8123,
      "ங்கம்": 8124,
      "கூறியது": 8125,
      "வேண்டி": 8126,
      "சேவி": 8127,
      "வர்களுக்கும்": 8128,
      "கப்பல்": 8129,
      "னாய்வு": 8130,
      "மோடியின்": 8131,
      "எஸ்டி": 8132,
      "ண்டாய்": 8133,
      "அஞ்சலி": 8134,
      "முதிய": 8135,
      "பான்": 8136,
      "ரியாக": 8137,
      "196": 8138,
      "பிரதமராக": 8139,
      "ஆந்திரா": 8140,
      "எடுக்கப்பட்ட": 8141,
      "தாக்கி": 8142,
      "ாராம்": 8143,
      "பாதுகாப்பான": 8144,
      "இயல்பு": 8145,
      "மூடி": 8146,
      "கொள்ளு": 8147,
      "குறைக்க": 8148,
      "எட": 8149,
      "வர்த்தகம்": 8150,
      "மேக்": 8151,
      "அப்து": 8152,
      "பண்ட": 8153,
      "நாம": 8154,
      "உறுதியான": 8155,
      "சொல்கிற": 8156,
      "ப்படம்": 8157,
      "அவரே": 8158,
      "இஸ்லாமிய": 8159,
      "சான்று": 8160,
      "சிகிச்ச": 8161,
      "சந்தேகம்": 8162,
      "ரூர்": 8163,
      "தரப்பின": 8164,
      "வல்லு": 8165,
      "லிக்க": 8166,
      "தூய்மை": 8167,
      "ஸ்தி": 8168,
      "ரிசர்": 8169,
      "முதல்வராக": 8170,
      "புரோ": 8171,
      "பத்தி": 8172,
      "அறுவை": 8173,
      "ட்டிங்": 8174,
      "ுமி": 8175,
      "lo": 8176,
      "இருக்கிறதா": 8177,
      "ஒலிம்பி": 8178,
      "உருவாக்கும்": 8179,
      "உறை": 8180,
      "க்குறைய": 8181,
      "வெட்டு": 8182,
      "அமைச்சகத்தின்": 8183,
      "நாணய": 8184,
      "நாராய": 8185,
      "கொண்டிருந்தது": 8186,
      "நடத்தப்பட்ட": 8187,
      "இன்னி": 8188,
      "நடன": 8189,
      "தீபாவளி": 8190,
      "அவரைப்": 8191,
      "செலுத்தி": 8192,
      "ப்பட்டி": 8193,
      "ின்றோம்": 8194,
      "உச்சநீதிமன்றம்": 8195,
      "மோதல": 8196,
      "உண்மையை": 8197,
      "எடுத்துக்கொள்ள": 8198,
      "மம": 8199,
      "செல்வ": 8200,
      "தென": 8201,
      "கூடும்": 8202,
      "அடிமை": 8203,
      "னாலே": 8204,
      "பட்ஜெட்": 8205,
      "மோடிக்கு": 8206,
      "உயிர்த்தெழு": 8207,
      "செவ்": 8208,
      "ல்லிய": 8209,
      "லியம்": 8210,
      "மாட்டார்": 8211,
      "கட்டாயம்": 8212,
      "பன்ன": 8213,
      "பின்னணி": 8214,
      "\\\"\"": 8215,
      "உத்தரவிட்டு": 8216,
      "iv": 8217,
      "வாலி": 8218,
      "பாடல்கள்": 8219,
      "செய்யப்பட்டுள்ளன": 8220,
      "மல்லி": 8221,
      "2000": 8222,
      "க்ஸ": 8223,
      "ரஷ்ய": 8224,
      "ன்மையை": 8225,
      "டுத்தப்பட்ட": 8226,
      "சட்டத்தை": 8227,
      "புகைப்படங்கள்": 8228,
      "யான": 8229,
      "தூண்டு": 8230,
      "விளையாடி": 8231,
      "மாதத்தில்": 8232,
      "குழுக்கள்": 8233,
      "நிறைவேற்று": 8234,
      "துன்பு": 8235,
      "ஸ்கர்": 8236,
      "புரட்சி": 8237,
      "41": 8238,
      "அஜித்": 8239,
      "ட்டது": 8240,
      "வீசி": 8241,
      "வரவேற்க": 8242,
      "பராமரி": 8243,
      "அபாய": 8244,
      "மேலே": 8245,
      "ட்சியை": 8246,
      "வாச": 8247,
      "சிலி": 8248,
      "றேன்": 8249,
      "றிந்த": 8250,
      "பிரபு": 8251,
      "அகில": 8252,
      "உயிரிழந்து": 8253,
      "அவளுடைய": 8254,
      "வெற்றிய": 8255,
      "வரிசையில்": 8256,
      "கற்க": 8257,
      "சொல்லிய": 8258,
      "ப்ரவரி": 8259,
      "வூர்": 8260,
      "கோயம்": 8261,
      "சிவா": 8262,
      "ட்சியின்": 8263,
      "நாட்களாக": 8264,
      "வள்ள": 8265,
      "தூண்ட": 8266,
      "எல்லாமே": 8267,
      "தாவர": 8268,
      "எம்எல்ஏ": 8269,
      "பாஸ்": 8270,
      "தீமோ": 8271,
      "அதன்பின்": 8272,
      "யாரையும்": 8273,
      "பொதுச்": 8274,
      "அர்த்தம்": 8275,
      "ர்களைக்": 8276,
      "அணிய": 8277,
      "நீல": 8278,
      "அதனால்தான்": 8279,
      "!\"": 8280,
      "விட்டோம்": 8281,
      "அதற்குப்": 8282,
      "எங்களுடைய": 8283,
      "வெளிப்படுத்துதல்": 8284,
      "ப்பம்": 8285,
      "ஜனநாயகக்": 8286,
      "கடினமான": 8287,
      "ஹார்": 8288,
      "என்னவென்றால்": 8289,
      "திரள": 8290,
      "வழிகாட்டு": 8291,
      "இங்கிலாந்த": 8292,
      "போகிறது": 8293,
      "செய்யப்படவில்லை": 8294,
      "நாத": 8295,
      "செய்கிறார்கள்": 8296,
      "காலக": 8297,
      "யுவ": 8298,
      "ஆதரவாக": 8299,
      "ட்கள்": 8300,
      "அன்ன": 8301,
      "உடற்ப": 8302,
      "தனிமை": 8303,
      "தங்கிய": 8304,
      "தெரிவிக்க": 8305,
      "ன்ட்": 8306,
      "பாமா": 8307,
      "பண்பு": 8308,
      "ஆண்கள்": 8309,
      "இறங்கி": 8310,
      "கோவில்": 8311,
      "அழைத்துச்": 8312,
      "மடங்கு": 8313,
      "அவதி": 8314,
      "என்னென்ன": 8315,
      "வைப்பு": 8316,
      "85": 8317,
      "நீங்களும்": 8318,
      "ஏமாற்ற": 8319,
      "நிலைத்த": 8320,
      "திடீர்": 8321,
      "லாமா": 8322,
      "வதைக்": 8323,
      "அப்பகுதி": 8324,
      "ஆசீர்": 8325,
      "அவா": 8326,
      "காஷ்மீரில்": 8327,
      "பிதா": 8328,
      "இயலா": 8329,
      "திரைய": 8330,
      "மகாத்மா": 8331,
      "பது": 8332,
      "கொண்டேன்": 8333,
      "ஓவிய": 8334,
      "இறப்பு": 8335,
      "இதனைத்": 8336,
      "குறுகிய": 8337,
      "ள்ளோம்": 8338,
      "கொதி": 8339,
      "னைப்": 8340,
      "சம்பளம்": 8341,
      "ண்டின்": 8342,
      "டியூ": 8343,
      "மாதங்களுக்கு": 8344,
      "ோகம்": 8345,
      "பாக்கி": 8346,
      "நேரி": 8347,
      "ஹிந்தி": 8348,
      "மருந்த": 8349,
      "இண்ட": 8350,
      "இருந்தார்கள்": 8351,
      "குறிக்கோ": 8352,
      "வழிவகு": 8353,
      "அருமையான": 8354,
      "மோசமாக": 8355,
      "பொறுப்ப": 8356,
      "போதிய": 8357,
      "கில்": 8358,
      "ீல்": 8359,
      "பின்த": 8360,
      "கொண்டனா்": 8361,
      "ப்பால்": 8362,
      "பிரதமரின்": 8363,
      "சுழற்": 8364,
      "இதெல்லாம்": 8365,
      "தெரிவு": 8366,
      "புறக்கணி": 8367,
      "ir": 8368,
      "ஜல்": 8369,
      "வேதிய": 8370,
      "மேற்கொள்": 8371,
      "ிற்காக": 8372,
      "லோக்ச": 8373,
      "கடலோ": 8374,
      "இருக்கவில்லை": 8375,
      "பரந்த": 8376,
      "ஹூண்டாய்": 8377,
      "இனிய": 8378,
      "காற்ற": 8379,
      "க்கொண்டே": 8380,
      "ங்களிலிருந்து": 8381,
      "தீமோத்தேயு": 8382,
      "ov": 8383,
      "இரும்பு": 8384,
      "ப்பாடி": 8385,
      "ராஜன்": 8386,
      "யாக்கோ": 8387,
      "க்கும்படி": 8388,
      "லுக்கான": 8389,
      "ஈடுபட": 8390,
      "வலுவான": 8391,
      "நயன்த": 8392,
      "வைத்தியசாலையில்": 8393,
      "திட": 8394,
      "விரைவாக": 8395,
      "செல்வம்": 8396,
      "எட்ட": 8397,
      "விநியோக": 8398,
      "ட்டாள": 8399,
      "மேன்": 8400,
      "நிபந்த": 8401,
      "ஊர்": 8402,
      "நயன்தாரா": 8403,
      "சேர்ந்தவர்கள்": 8404,
      "இடங்கள்": 8405,
      "படியே": 8406,
      "எப்படிய": 8407,
      "டிகள்": 8408,
      "நாளும்": 8409,
      "மலும்": 8410,
      "ிடும்": 8411,
      "புல்": 8412,
      "பயனு": 8413,
      "வகைகள்": 8414,
      "க்காரர்கள்": 8415,
      "அப்போஸ்தலன்": 8416,
      "ரிசர்வ்": 8417,
      "குறைபாடு": 8418,
      "நேரங்களில்": 8419,
      "ஸ்மார்ட": 8420,
      "ாலம்": 8421,
      "ட்டிகள்": 8422,
      "கொன்ற": 8423,
      "இயங்கி": 8424,
      "கிறிஸ்துவின்": 8425,
      "அத்தியாவசிய": 8426,
      "சொல்லவில்லை": 8427,
      "எனக்குப்": 8428,
      "ஏற்படுகிறது": 8429,
      "ராஜ்நாத்": 8430,
      "அடிப்படையிலான": 8431,
      "ரவு": 8432,
      "படத்துக்கு": 8433,
      "கத்தோ": 8434,
      "தொடரை": 8435,
      "வளர்ந்த": 8436,
      "இணைந்த": 8437,
      "லோக்சபா": 8438,
      "அந்தஸ்த": 8439,
      "கோண": 8440,
      "களோடு": 8441,
      "சியுங்கள்": 8442,
      "ot": 8443,
      "காதலி": 8444,
      "சிவப்பு": 8445,
      "மடை": 8446,
      "நினைவில்": 8447,
      "பலவீன": 8448,
      "ாதே": 8449,
      "கோள்": 8450,
      "வெளியானது": 8451,
      "டியை": 8452,
      "அமைத்து": 8453,
      "வளர்த்து": 8454,
      "ஸ்கா": 8455,
      "நிறுவனத்தில்": 8456,
      "இல்லைய": 8457,
      "ப்பதற்கும்": 8458,
      "்தொ": 8459,
      "சுத்தி": 8460,
      "நிலைக்கு": 8461,
      "அச்சுறுத்த": 8462,
      "ம்ம": 8463,
      "ப்பைக்": 8464,
      "நினைக்கிறேன்": 8465,
      "நகரங்களில்": 8466,
      "ஜென": 8467,
      "வங்கியின்": 8468,
      "சிலை": 8469,
      "லூக்கா": 8470,
      "ஸ்மார்ட்போ": 8471,
      "வதக்கவும்": 8472,
      "வாளர்": 8473,
      "வைக்கப்பட்டது": 8474,
      "ப்போல": 8475,
      "கூடி": 8476,
      "மானியம்": 8477,
      "கடத்த": 8478,
      "முதலீட்டு": 8479,
      "விருப்பம்": 8480,
      "ஷ்டி": 8481,
      "விடவில்லை": 8482,
      "தடுப்பூசி": 8483,
      "ஒடி": 8484,
      "அங்கிருந்த": 8485,
      "பழி": 8486,
      "இரக": 8487,
      "வீட்டிற்கு": 8488,
      "மாணவிகள்": 8489,
      "வதோடு": 8490,
      "கருணா": 8491,
      "எஸ்யூவி": 8492,
      "ஏவு": 8493,
      "மூலக்கூ": 8494,
      "பொறுத்தவரை": 8495,
      "வாண": 8496,
      "தொற்ற": 8497,
      "பவரையும்": 8498,
      "அருங்கா": 8499,
      "உயிரிழந்துள்ளனர்": 8500,
      "ஆர": 8501,
      "வரே": 8502,
      "மாகத்": 8503,
      "ஜனங்கள்": 8504,
      "தொடா்பாக": 8505,
      "விற்கும்": 8506,
      "மூலதன": 8507,
      "வரலாற்றில்": 8508,
      "அண்ணா": 8509,
      "800": 8510,
      "மெய்": 8511,
      "ேயும்": 8512,
      "மனுவை": 8513,
      "பெற்றோர்கள்": 8514,
      "பலம்": 8515,
      "தரமான": 8516,
      "சூர்யா": 8517,
      "தொடா்ந்து": 8518,
      "வனா": 8519,
      "கோர": 8520,
      "டார்க்": 8521,
      "சமர்ப்பி": 8522,
      "மீற": 8523,
      "வழங்கப்பட்ட": 8524,
      "லுடன்": 8525,
      "கருப்பு": 8526,
      "வாக்குறுதி": 8527,
      "கடலோர": 8528,
      "யே": 8529,
      "ப்படலாம்": 8530,
      "விடுங்கள்": 8531,
      "ஒருமுறை": 8532,
      "நீதிபதிகள்": 8533,
      "அச்சுறு": 8534,
      "இழப்ப": 8535,
      "இயங்கும்": 8536,
      "விவரி": 8537,
      ":⁠": 8538,
      "அபிவிருத்தி": 8539,
      "கருத்தை": 8540,
      "கோட்ட": 8541,
      "திராவிட": 8542,
      "்பெ": 8543,
      "வாங்கிய": 8544,
      "போதை": 8545,
      "முதலமைச்ச": 8546,
      "லிமிடெட்": 8547,
      "இருங்கள்": 8548,
      "கொல்லப்பட்ட": 8549,
      "ரையை": 8550,
      "ராகிய": 8551,
      "ers": 8552,
      "வில்லையா": 8553,
      "அப்படியானால்": 8554,
      "பாலா": 8555,
      "நிஜ": 8556,
      "காணலாம்": 8557,
      "அபார": 8558,
      "சொன்னேன்": 8559,
      "க்கத்": 8560,
      "பாசன": 8561,
      "ஜ்ரி": 8562,
      "அருங்காட்சிய": 8563,
      "வொன்ற": 8564,
      "மஹா": 8565,
      "விசை": 8566,
      "ரன": 8567,
      "முயற்சிகளை": 8568,
      "பதவியை": 8569,
      "அகர்வால்": 8570,
      "ச்சொ": 8571,
      "மறக்க": 8572,
      "கமான": 8573,
      "விலேயே": 8574,
      "எப்": 8575,
      "போன்றவற்ற": 8576,
      "விழுந்த": 8577,
      "திப": 8578,
      "நீரில்": 8579,
      "வடகிழக்கு": 8580,
      "கூடுதலான": 8581,
      "ீப்": 8582,
      "ஊரடங்கு": 8583,
      "எங்கும்": 8584,
      "பெறவில்லை": 8585,
      "மறைந்த": 8586,
      "நம்பிக்கையை": 8587,
      "ஈராக்": 8588,
      "மஸ்": 8589,
      "ர்களோ": 8590,
      "ரைய": 8591,
      "கட்டடம்": 8592,
      "ணிகள்": 8593,
      "நின்ற": 8594,
      "ல்ஸ்": 8595,
      "ட்விட்டர்": 8596,
      "கேள்விக்கு": 8597,
      "வருடம்": 8598,
      "படித்த": 8599,
      "ஜெபம்": 8600,
      "ww": 8601,
      "தவறாக": 8602,
      "பின்னால்": 8603,
      "சொன்னது": 8604,
      "முன": 8605,
      "வதைத்": 8606,
      "ஞா": 8607,
      "தகரா": 8608,
      "ண்க": 8609,
      "தழு": 8610,
      "என்றபோதிலும்": 8611,
      "பொன்": 8612,
      "ப்பாட்ட": 8613,
      "ப்பிரதேச": 8614,
      "கடற்படை": 8615,
      "ஐடி": 8616,
      "கோரிக்க": 8617,
      "அளவை": 8618,
      "ளிக்கும்": 8619,
      "என்னைப்": 8620,
      "க்கிக்": 8621,
      "தாகக்": 8622,
      "ரோஹித்": 8623,
      "அறிவிக்கப்பட்டுள்ளது": 8624,
      "அனுமதிக்க": 8625,
      "ற்றினார்": 8626,
      "95": 8627,
      "வருகிறேன்": 8628,
      "முன்னுரிமை": 8629,
      "வேலைகள்": 8630,
      "எங்களது": 8631,
      "போ்": 8632,
      "அதிரு": 8633,
      "கண்டன": 8634,
      "அசை": 8635,
      "பள்ளிகளில்": 8636,
      "கொல்லப்பட்டனர்": 8637,
      "வழிநடத்து": 8638,
      "தவறி": 8639,
      "இவர்களில்": 8640,
      "முழுவதிலும்": 8641,
      "மோசடி": 8642,
      "சீதாராமன்": 8643,
      "க்கத்தக்க": 8644,
      "அனுப்பு": 8645,
      "ினருக்கு": 8646,
      "பேரிடர்": 8647,
      "ஆட்டம்": 8648,
      "நிலைப்": 8649,
      "உண்மையாக": 8650,
      "வேள": 8651,
      "வழங்கப்பட்டன": 8652,
      "St": 8653,
      "ளில்": 8654,
      "சுட்டிக்கா": 8655,
      "லைக்": 8656,
      "போயி": 8657,
      "ற்கோ": 8658,
      "எழுப்பிய": 8659,
      "தெளிவு": 8660,
      "லுக்கும்": 8661,
      "பத்திரிகைய": 8662,
      "பகரண": 8663,
      "செய்வதற்கான": 8664,
      "புகழ்": 8665,
      "மொழிய": 8666,
      "கண்ணா": 8667,
      "துடு": 8668,
      "சட்டப்பே": 8669,
      "உபகரண": 8670,
      "போட்டோ": 8671,
      "வணக்க": 8672,
      "பணியாற்றிய": 8673,
      "சுதந்திரம்": 8674,
      "125": 8675,
      "கம்யூனிஸ்ட்": 8676,
      "நம்பிக்கைய": 8677,
      "சேதம": 8678,
      "கிராமம்": 8679,
      "நியாயமான": 8680,
      "கொவிட்": 8681,
      "ப்பட்டிருக்கிறது": 8682,
      "வெளியிட்டுள்ளது": 8683,
      "திருநெல்": 8684,
      "அங்குள்ள": 8685,
      "பதிலடி": 8686,
      "வண்டி": 8687,
      "நம்மால்": 8688,
      "ியைச்": 8689,
      "உடல்நல": 8690,
      "அம்சங்கள்": 8691,
      "எகிப்த": 8692,
      "களுடைய": 8693,
      "மைகள்": 8694,
      "சிட்டி": 8695,
      "விடவும்": 8696,
      "சிம்": 8697,
      "வைரலாகி": 8698,
      "சேதம்": 8699,
      "மருந்துகள்": 8700,
      "பதிவிட்டுள்ளார்": 8701,
      "தலைமுறை": 8702,
      "கீழ்க்க": 8703,
      "குறியீடு": 8704,
      "இஞ்சி": 8705,
      "எச்சரி": 8706,
      "செய்யப்பட்டனர்": 8707,
      "மக்களவை": 8708,
      "நடத்தும்": 8709,
      "சீனாவின்": 8710,
      "அவர்களும்": 8711,
      "புரியும்": 8712,
      "மன்ன": 8713,
      "ஷூ": 8714,
      "ஸ்பி": 8715,
      "துறையினர்": 8716,
      "ந்துள்ளன": 8717,
      "நீக்க": 8718,
      "லாத்கா": 8719,
      "நீரை": 8720,
      "ியாகும்": 8721,
      "கல்லூரியில்": 8722,
      "அரசுகள்": 8723,
      "ர்ஸ்": 8724,
      "புலனாய்வு": 8725,
      "எப்ப": 8726,
      "அந்நிய": 8727,
      "அரவிந்த்": 8728,
      "முக்கியமானது": 8729,
      "விடலாம்": 8730,
      "பலாத்கா": 8731,
      "பிப்ரவரி": 8732,
      "அறியா": 8733,
      "நடைபெறுகிறது": 8734,
      "மனப்பான்": 8735,
      "பட்டா": 8736,
      "பூமியின்": 8737,
      "மேஷ்": 8738,
      "ரகு": 8739,
      "எனப்": 8740,
      "வத்": 8741,
      "விஷயங்களை": 8742,
      "மையையும்": 8743,
      "67": 8744,
      "வாகனம்": 8745,
      "னெ": 8746,
      "செய்தேன்": 8747,
      "நெருங்கி": 8748,
      "அங்கீகரிக்க": 8749,
      "கள்ள": 8750,
      "புலம்": 8751,
      "கோவிந்த்": 8752,
      "வெள்ளம்": 8753,
      "ig": 8754,
      "காட்சிகள்": 8755,
      "வித்தியாசமான": 8756,
      "ஆரோக்கியமான": 8757,
      "இருக்கின்றது": 8758,
      "உணவுப்": 8759,
      "காட்டிலும்": 8760,
      "ர்ப்": 8761,
      "ப்பிரிவு": 8762,
      "ஜை": 8763,
      "ட்டியது": 8764,
      "சிதம்பரம்": 8765,
      "வழங்கியுள்ளது": 8766,
      "மாறும்": 8767,
      "படகு": 8768,
      "ப்ரா": 8769,
      "பீகார்": 8770,
      "சம்பள": 8771,
      "நானே": 8772,
      "ஆலை": 8773,
      "கொழும்": 8774,
      "அல்லவா": 8775,
      "அப்போஸ்தலர்": 8776,
      "உங்களின்": 8777,
      "ஷியா": 8778,
      "த்தூ": 8779,
      "தொடர்ச்சியாக": 8780,
      "சிறுபான்மைய": 8781,
      "ரஹ்": 8782,
      "மனிதர்": 8783,
      "மிருக": 8784,
      "நிலக்க": 8785,
      "அளித்தது": 8786,
      "வாழ்த்துக்கள்": 8787,
      "தேர்ந்தெடுக்க": 8788,
      "ம்த": 8789,
      "திசை": 8790,
      "பயனாளி": 8791,
      "நிகழ்ச்சிகள்": 8792,
      "அரே": 8793,
      "ின்றி": 8794,
      "ஸ்புக்": 8795,
      "நாங்க": 8796,
      "வாடிக்கையாள": 8797,
      "கரிப்பு": 8798,
      "ஏற்பாடுகள்": 8799,
      "பழங்குடியினர்": 8800,
      "மட்டுமல்லாமல்": 8801,
      "த்தெ": 8802,
      "குறிக்கிறது": 8803,
      "திரையுலக": 8804,
      "ிருப்பதை": 8805,
      "சம்பந்தமாக": 8806,
      "கருதி": 8807,
      "முன்பே": 8808,
      "நடத்தப்படும்": 8809,
      "இந்தியாவும்": 8810,
      "ூட": 8811,
      "உட்பட்ட": 8812,
      "இவரை": 8813,
      "நூல்": 8814,
      "நண்பர்களே": 8815,
      "சைக்கிள்": 8816,
      "நிலைமையை": 8817,
      "எந்தக்": 8818,
      "ங்காய்": 8819,
      "பிரசாத்": 8820,
      "கூறப்பட்டுள்ளது": 8821,
      "அமில": 8822,
      "மிஸ்": 8823,
      "சேர": 8824,
      "ிருந்தாலும்": 8825,
      "அளிக்கப்பட்டு": 8826,
      "சீனாவில்": 8827,
      "ரீதியில்": 8828,
      "ச்சேரி": 8829,
      "வளர்ப்ப": 8830,
      "்டி": 8831,
      "டுகிறது": 8832,
      "ஊழியம்": 8833,
      "சிரு": 8834,
      "வைட்டமின்": 8835,
      "தமாக": 8836,
      "பத்": 8837,
      "ஸ்போர்ட்": 8838,
      "மழையால்": 8839,
      "ர்கு": 8840,
      "இதன்மூலம்": 8841,
      "இதைக்": 8842,
      "பாதையில்": 8843,
      "டுக்கி": 8844,
      "ஆன்லைன்": 8845,
      "என்பதைப்": 8846,
      "வேண்டுமென": 8847,
      "த்தோம்": 8848,
      "பயம்": 8849,
      "மைதான": 8850,
      "கவனிய": 8851,
      "பாதுகாக்க": 8852,
      "ரச": 8853,
      "விளைவி": 8854,
      "03": 8855,
      "op": 8856,
      "செய்தால்": 8857,
      "உருவாகி": 8858,
      "எடப்பாடி": 8859,
      "யாக": 8860,
      "செய்கிறார்": 8861,
      "பயன்படுத்திய": 8862,
      "05": 8863,
      "க்கோட்டை": 8864,
      "பாப": 8865,
      "டெக்": 8866,
      "உற்பத்த": 8867,
      "விளையாட": 8868,
      "ஆவது": 8869,
      "ஊற்றி": 8870,
      "வாடி": 8871,
      "வாளர்கள்": 8872,
      "நீடித்த": 8873,
      "அழகு": 8874,
      "காப்பீட்டு": 8875,
      "வணை": 8876,
      "டிரா": 8877,
      "os": 8878,
      "செயலி": 8879,
      "பேட்ட": 8880,
      "ஆளுந": 8881,
      "வளர்ப்பு": 8882,
      "வருடங்களுக்கு": 8883,
      "தேவா": 8884,
      "செய்யப்பட்டுள்ளார்": 8885,
      "மானார்": 8886,
      "என்பதுதான்": 8887,
      "விதிகள்": 8888,
      "நாட்டிற்கு": 8889,
      "இந்தோனே": 8890,
      "பண்ணு": 8891,
      "மக்களிடம்": 8892,
      "தீர்ப்பை": 8893,
      "குள": 8894,
      "இருப்பு": 8895,
      "பகுதியை": 8896,
      "திகழ": 8897,
      "தெய்": 8898,
      "நிறுவனங்களுக்கு": 8899,
      "வடிவமைப்பு": 8900,
      "ல்தான்": 8901,
      "க்கமாக": 8902,
      "புரா": 8903,
      "விவே": 8904,
      "பிரதிநிதிகள்": 8905,
      "ab": 8906,
      "தெய்வ": 8907,
      "லாந்த": 8908,
      "பிரித்தான": 8909,
      "குடும்பத்தினர்": 8910,
      "மகத்தான": 8911,
      "ஆபிரகா": 8912,
      "உருவ": 8913,
      "பிரிட்டி": 8914,
      "அலகு": 8915,
      "தொகையை": 8916,
      "திருப்தி": 8917,
      "நாயகியாக": 8918,
      "தாழ்": 8919,
      "வீராங்க": 8920,
      "படைத்த": 8921,
      "தஞ்சா": 8922,
      "எடுத்துச்": 8923,
      "ராஜீவ்": 8924,
      "லட்சக்கணக்கான": 8925,
      "சராசரி": 8926,
      "வுள்ளார்": 8927,
      "கிளி": 8928,
      "கொடுக்கப்பட்ட": 8929,
      "பெங்களூர்": 8930,
      "வனுக்கு": 8931,
      "கவனியுங்கள்": 8932,
      "தெளிவான": 8933,
      "நிறுத்து": 8934,
      "நஷ்ட": 8935,
      "துரி": 8936,
      "முதி": 8937,
      "நடிக்கும்": 8938,
      "மரு": 8939,
      "சமாளிக்க": 8940,
      "ப்படுத்தினார்": 8941,
      "பண்ணை": 8942,
      "அலுவலர்கள்": 8943,
      "விதம்": 8944,
      "செய்தார்கள்": 8945,
      "ராணுவம்": 8946,
      "வரையறு": 8947,
      "புற்றுநோய்": 8948,
      "புகாரின்": 8949,
      "சதுர": 8950,
      "பதிவே": 8951,
      "விசாரணைகள்": 8952,
      "சிதை": 8953,
      "செலுத்தும்": 8954,
      "அபரா": 8955,
      "நிறம்": 8956,
      "உயர்ந்துள்ளது": 8957,
      "குளோ": 8958,
      "நிறுவனமான": 8959,
      "திகா": 8960,
      "நடத்தப்பட்டு": 8961,
      "ளிப்பு": 8962,
      "புறம்": 8963,
      "தார்த்த": 8964,
      "பாதுகாப்புத்": 8965,
      "போலீஸா": 8966,
      "ார்களா": 8967,
      "வழங்குகிறது": 8968,
      "்கி": 8969,
      "முறையும்": 8970,
      "வாழ்க்கையின்": 8971,
      "திருநெல்வேலி": 8972,
      "58": 8973,
      "கேரளாவில்": 8974,
      "சையை": 8975,
      "ந்தின": 8976,
      "அறிவுறு": 8977,
      "தொடர்க": 8978,
      "டாக்": 8979,
      "வளாகத்தில்": 8980,
      "மீனவர்கள்": 8981,
      "க்கதை": 8982,
      "வாழ்வாதார": 8983,
      "அவ்வப்போது": 8984,
      "திக்கு": 8985,
      "இந்தியர்கள்": 8986,
      "காணாமல்": 8987,
      "1000": 8988,
      "கங்கை": 8989,
      "மற்றவர்களுக்கு": 8990,
      "ஒபாமா": 8991,
      "மெகா": 8992,
      "லும்பு": 8993,
      "சேவைய": 8994,
      "பேசும்": 8995,
      "பானர்ஜி": 8996,
      "க்குமாறு": 8997,
      "அஸ்": 8998,
      "சிவசேனா": 8999,
      "முற்று": 9000,
      "ஹரியானா": 9001,
      "போராடி": 9002,
      "வட்டம்": 9003,
      "லுமி": 9004,
      "கிராமத்தில்": 9005,
      "உண்டாகும்": 9006,
      "்பாடு": 9007,
      "நாமும்": 9008,
      "சம்பாதி": 9009,
      "பாட்டில்": 9010,
      "இத்திரை": 9011,
      "மார்க": 9012,
      "அயோ": 9013,
      "க்கினார்": 9014,
      "கோயம்புத்த": 9015,
      "பத்தா": 9016,
      "ஏல": 9017,
      "தெரிவிக்கின்றன": 9018,
      "வேண்டியிருந்தது": 9019,
      "அமர்வு": 9020,
      "செய்வதற்காக": 9021,
      "ame": 9022,
      "முற்ப": 9023,
      "கத்தோலிக்க": 9024,
      "நடித்துள்ள": 9025,
      "றுப்பு": 9026,
      "த்திடம்": 9027,
      "பண்டிகை": 9028,
      "எதுவுமே": 9029,
      "ாட": 9030,
      "ஸ்டு": 9031,
      "பாகு": 9032,
      "சூடு": 9033,
      "சாலி": 9034,
      "கண்ணீர்": 9035,
      "பன்னீர்": 9036,
      "சப்": 9037,
      "ஷங்கர்": 9038,
      "பதவியே": 9039,
      "பயிர்": 9040,
      "பிள்ள": 9041,
      "தப்பிய": 9042,
      "கொள்ளை": 9043,
      "இவ்வாற": 9044,
      "52": 9045,
      "கிமீ": 9046,
      "உலகக்": 9047,
      "கடினமாக": 9048,
      "பும்": 9049,
      "உடலில்": 9050,
      "சேர்ந்தவர்": 9051,
      "நாயகன": 9052,
      "பருப்பு": 9053,
      "உண்ண": 9054,
      "த்தின்போது": 9055,
      "தோற்று": 9056,
      "ஐசி": 9057,
      "ல்கா": 9058,
      "ிறார்": 9059,
      "படுகொலை": 9060,
      "நேரத்தை": 9061,
      "பங்கேற்ப": 9062,
      "உச்சநீதிமன்ற": 9063,
      "டேபிள்": 9064,
      "காலி": 9065,
      "கோடிக்கு": 9066,
      "செய்யப்பட்டுள்ளனர்": 9067,
      "உறவினர்கள்": 9068,
      "அசோ": 9069,
      "56": 9070,
      "ியுடன்": 9071,
      "ப்பட்டிருந்தது": 9072,
      "மூச்சு": 9073,
      "படங்களை": 9074,
      "ிருக்கவில்லை": 9075,
      "சமாக": 9076,
      "க்களையும்": 9077,
      "எம்பி": 9078,
      "ஏறக்குறைய": 9079,
      "பைபிளில்": 9080,
      "வாட்": 9081,
      "ஆதார்": 9082,
      "od": 9083,
      "சண்ட": 9084,
      "ொன்று": 9085,
      "துரோ": 9086,
      "ிருங்கள்": 9087,
      "பின்பற்றி": 9088,
      "விசுவாசம்": 9089,
      "நாடாளுமன்றத்தில்": 9090,
      "நேரில்": 9091,
      "மதிப்பெ": 9092,
      "உறுப்பு": 9093,
      "ஏற்பட்டுள்ள": 9094,
      "இணையத்தில்": 9095,
      "பிணை": 9096,
      "செய்யப்பட்டுள்ள": 9097,
      "ஏதேனும்": 9098,
      "உச்சி": 9099,
      "சரு": 9100,
      "வெறி": 9101,
      "அமைக்கும்": 9102,
      "கடைசியாக": 9103,
      "தரை": 9104,
      "வந்தன": 9105,
      "தொழில்துறை": 9106,
      "வாரா": 9107,
      "ஹைதராபாத்": 9108,
      "ாக்க": 9109,
      "பாதுகாப்புப்": 9110,
      "விழுக்காடு": 9111,
      "ஆகியோரும்": 9112,
      "ஆத்": 9113,
      "செலவின": 9114,
      "வந்துள்ள": 9115,
      "இயலாது": 9116,
      "்சை": 9117,
      "விருதுகள்": 9118,
      "டுத்தி": 9119,
      "உங்களது": 9120,
      "ருமே": 9121,
      "அறிமுகப்படுத்த": 9122,
      "கத்தை": 9123,
      "அபராதம்": 9124,
      "தாமத": 9125,
      "அப்படிச்": 9126,
      "ஆர்ப்பாட்ட": 9127,
      "இருந்தபோதிலும்": 9128,
      "கூட்டமைப்பு": 9129,
      "ர்போ": 9130,
      "கூடா": 9131,
      "பைய": 9132,
      "அதிப": 9133,
      "புகழ்பெ": 9134,
      "கிரிக்கெ": 9135,
      "உதவியுடன்": 9136,
      "எய": 9137,
      "்கோ": 9138,
      "சித": 9139,
      "முகர்": 9140,
      "ஸ்க்": 9141,
      "எதிர்காலம்": 9142,
      "முயற்சியில்": 9143,
      "மாநகராட்சி": 9144,
      "மறுப்பு": 9145,
      "எல்லையில்": 9146,
      "im": 9147,
      "வாஷிங்டன்": 9148,
      "மம்தா": 9149,
      "ரெட்": 9150,
      "நான்காவது": 9151,
      "ீன்": 9152,
      "ஒருவன்": 9153,
      "ப்பர": 9154,
      "வேட": 9155,
      "த்தாலும்": 9156,
      "கிடைத்துள்ளது": 9157,
      "இருப்பார்கள்": 9158,
      "கட்டளைய": 9159,
      "பெண்களை": 9160,
      "வெளியிட்டுள்ளார்": 9161,
      "வந்தேன்": 9162,
      "அதன்பிறகு": 9163,
      "சீரமை": 9164,
      "தனுஷ்": 9165,
      "ழுதும்": 9166,
      "உங்களால்": 9167,
      "வெளியேறி": 9168,
      "வகையிலும்": 9169,
      "மக்களிடையே": 9170,
      "தற்": 9171,
      "உதவித்": 9172,
      "கதாபாத்திரத்தில்": 9173,
      "சேன": 9174,
      "பரிதாபமாக": 9175,
      "சிஸ்ட": 9176,
      "தயாரிக்கும்": 9177,
      "முத்து": 9178,
      "காஞ்சி": 9179,
      "ஒருவருக்கு": 9180,
      "தொழிற": 9181,
      "Ch": 9182,
      "பெய்த": 9183,
      "ர்டி": 9184,
      "உறுப்பினராக": 9185,
      "வரவேற்பை": 9186,
      "கோரிய": 9187,
      "லக்ட்": 9188,
      "ம்மா": 9189,
      "உண்மையுள்ள": 9190,
      "செய்ப": 9191,
      "வர்களாய்": 9192,
      "சொல்லும்": 9193,
      "உதவியாக": 9194,
      "வளர்ச்சியை": 9195,
      "2006": 9196,
      "பொற": 9197,
      "மாணவர்கள": 9198,
      "ட்டேன்": 9199,
      "கோஹ்": 9200,
      "லட்சுமி": 9201,
      "ற்றது": 9202,
      "மேம்பாட்டுத்": 9203,
      "சௌ": 9204,
      "காப்பாற்ற": 9205,
      "மடைய": 9206,
      "விவரிக்க": 9207,
      "ோடும்": 9208,
      "நீதிய": 9209,
      "கருத்துக்களை": 9210,
      "அரிய": 9211,
      "க்கட்டு": 9212,
      "அனுமதிக்கப்பட்டுள்ளனர்": 9213,
      "துண்டி": 9214,
      "றியது": 9215,
      "வெளிப்படுத்தும்": 9216,
      "பிரதேசத்தில்": 9217,
      "ஷம்": 9218,
      "வுன்": 9219,
      "ஒப்புக்": 9220,
      "வெற்றியை": 9221,
      "அத்தா": 9222,
      "களுக்குப்": 9223,
      "கர்த்தருடைய": 9224,
      "சாந்த": 9225,
      "எழும்": 9226,
      "லிக்": 9227,
      "மாவட்டத்தின்": 9228,
      "கேட்டேன்": 9229,
      "ா்ப்ப": 9230,
      "தாண்டி": 9231,
      "பயன்படுத்தும்": 9232,
      "உண்மைதான்": 9233,
      "கறி": 9234,
      "முட்டை": 9235,
      "ர்களைப்": 9236,
      "வெளியீடு": 9237,
      "நியமனம்": 9238,
      "ஜோடி": 9239,
      "தீர்க்கதரிசன": 9240,
      "செய்தியாளர்களிடம்": 9241,
      "களம்": 9242,
      "தாக்கிய": 9243,
      "இடங்களிலும்": 9244,
      "துப்பாக்கிச்": 9245,
      "வேலூர்": 9246,
      "ராம்நாத்": 9247,
      "விநியோகம்": 9248,
      "என்றனர்": 9249,
      "எழுப்பி": 9250,
      "அரசியலமைப்பு": 9251,
      "தேசியவாத": 9252,
      "இளவர": 9253,
      "தேர்ச்சி": 9254,
      "முஸ்லிம்": 9255,
      "எதற்கு": 9256,
      "னிட": 9257,
      "குழந்தைகளின்": 9258,
      "உடல்நிலை": 9259,
      "டி20": 9260,
      "தாது": 9261,
      "தலைப்பு": 9262,
      "ிருந்தும்": 9263,
      "க்கொடுத்த": 9264,
      "புய": 9265,
      "சொல்லலாம்": 9266,
      "மோடியை": 9267,
      "விழித்த": 9268,
      "ண்கள்": 9269,
      "கால்பந்து": 9270,
      "பரவலாக": 9271,
      "வாசியுங்கள்": 9272,
      "செய்யப்பட்டன": 9273,
      "போரில்": 9274,
      "தவிர்த்து": 9275,
      "அன்பான": 9276,
      "தகுதியான": 9277,
      "68": 9278,
      "அத்தனை": 9279,
      "சேவையை": 9280,
      "வீக": 9281,
      "அறிக்கையை": 9282,
      "ஷ்கா": 9283,
      "திறனையும்": 9284,
      "கடைகள்": 9285,
      "நிச்சயமாகவே": 9286,
      "நாராயண": 9287,
      "ுடனும்": 9288,
      "நோக்கிய": 9289,
      "ஜிபி": 9290,
      "நெரி": 9291,
      "கருவிகள்": 9292,
      "நீரி": 9293,
      "படிப்படியாக": 9294,
      "அமைப்பை": 9295,
      "திருவள்ள": 9296,
      "ாங்க": 9297,
      "சுற்றுப்பய": 9298,
      "எப்போதுமே": 9299,
      "வதுடன்": 9300,
      "உருவாக்கப்பட்ட": 9301,
      "பார்க்கும்": 9302,
      "ப்பகுதியில்": 9303,
      "விக்கிர": 9304,
      "பணியாளர்": 9305,
      "77": 9306,
      "டன": 9307,
      "2005": 9308,
      "பற்றாக்குறை": 9309,
      "தகுந்த": 9310,
      "காவிரி": 9311,
      "குறிப்பிடுகிறது": 9312,
      "உறுதியளி": 9313,
      "தங்கி": 9314,
      "வெல்": 9315,
      "உம்முடைய": 9316,
      "தெரியாத": 9317,
      "கிரீ": 9318,
      "கோடியாக": 9319,
      "செலவுத்": 9320,
      "இருக்கா": 9321,
      "என்றேன்": 9322,
      "வளம்": 9323,
      "கணக்கெடு": 9324,
      "ஜிஎஸ்டி": 9325,
      "மாணவியர்": 9326,
      "நீக்கி": 9327,
      "தீவிரவாதிகள்": 9328,
      "அதிகரிப்பு": 9329,
      "க்கொள்கிறேன்": 9330,
      "நிதியாண்டில்": 9331,
      "தார்": 9332,
      "ர்கா": 9333,
      "பாவம்": 9334,
      "தொடர்ந்தும்": 9335,
      "நடத்தப்பட்டது": 9336,
      "ரிடமும்": 9337,
      "அடுக்கு": 9338,
      "என்பதும்": 9339,
      "உச்சநீதிமன்றத்தில்": 9340,
      "மாதங்களில்": 9341,
      "பல்கலைக்கழகத்தில்": 9342,
      "தேர்ந்தெடுக்கப்பட்ட": 9343,
      "பயிற்று": 9344,
      "தகராறு": 9345,
      "எமக்கு": 9346,
      "றே": 9347,
      "புத்திர": 9348,
      "னிடத்தில்": 9349,
      "ap": 9350,
      "செல்வாக்கு": 9351,
      "காயமடைந்தனர்": 9352,
      "உணர்ந்து": 9353,
      "நாடாக": 9354,
      "ைக்கு": 9355,
      "ஏரி": 9356,
      "சுப்ரீ": 9357,
      "இலக்கை": 9358,
      "பார்த்தேன்": 9359,
      "துயர": 9360,
      "குறையும்": 9361,
      "பாதுகாப்பாக": 9362,
      "எலக்ட்": 9363,
      "கொன்று": 9364,
      "அனுமதிக்கப்பட்ட": 9365,
      "சென்றது": 9366,
      "அமல்படுத்த": 9367,
      "பட்டண": 9368,
      "கோடியை": 9369,
      "விக்ரம்": 9370,
      "120": 9371,
      "கருதப்படுகிறது": 9372,
      "வைக்கவும்": 9373,
      "ப்படுத்தியது": 9374,
      "பட்டி": 9375,
      "குற்றம்சா": 9376,
      "நூற்றுக்கணக்கான": 9377,
      "தஞ்சாவூர்": 9378,
      "ளர": 9379,
      "நிலுவ": 9380,
      "கிங்ஸ்": 9381,
      "ரோமர்": 9382,
      "மாணவர்களின்": 9383,
      "பிரிந்து": 9384,
      "வனாக": 9385,
      "இஸ்ரவேல்": 9386,
      "எழுந்த": 9387,
      "தயாரிப்பாளர்": 9388,
      "வியில்": 9389,
      "நிறுவனங்களில்": 9390,
      "ன்னா": 9391,
      "சுஸு": 9392,
      "எண்ணம்": 9393,
      "ஆசாரிய": 9394,
      "சிக்கிய": 9395,
      "ட்ச்": 9396,
      "இந்தியத்": 9397,
      "அளிக்கப்பட்டுள்ளது": 9398,
      "ac": 9399,
      "அதிர்ச்சிய": 9400,
      "சத்த": 9401,
      "துவங்க": 9402,
      "புகு": 9403,
      "ப்படுகிறார்கள்": 9404,
      "பாசி": 9405,
      "பயன்படுத்திக்": 9406,
      "சச்சின்": 9407,
      "மெட்ரோ": 9408,
      "கூறியிருப்பதாவது": 9409,
      "பெரிதாக": 9410,
      "டொனால்ட்": 9411,
      "ெல்": 9412,
      "பச்ச": 9413,
      "பாரு": 9414,
      "புள்ளிகள்": 9415,
      "நாட்டுக்கு": 9416,
      "இடைவெளி": 9417,
      "கவிதை": 9418,
      "முக்கியத்துவ": 9419,
      "எழுப்ப": 9420,
      "மனைவியும்": 9421,
      "ஸ்மி": 9422,
      "ப்பதும்": 9423,
      "கம்பெ": 9424,
      "விவரங்களை": 9425,
      "சித்து": 9426,
      "இடங்களை": 9427,
      "ஒன்றி": 9428,
      "கிறதா": 9429,
      "கோவை": 9430,
      "செம்": 9431,
      "தணிக்கை": 9432,
      "காத": 9433,
      "சுயா": 9434,
      "வைக்கப்பட்டுள்ளது": 9435,
      "தம்பி": 9436,
      "இன்ஸ்ட": 9437,
      "கைப்பற்ற": 9438,
      "தென்ன": 9439,
      "முன்னில": 9440,
      "அப்படியென்றால்": 9441,
      "சபையின்": 9442,
      "அப்பட": 9443,
      "கோப்ப": 9444,
      "பரிசோதி": 9445,
      "திட்டமிட்ட": 9446,
      "தோறும்": 9447,
      "தென்னி": 9448,
      "வெடிப்பு": 9449,
      "விடுதலைப்": 9450,
      "குடிக்க": 9451,
      "இடைக்கால": 9452,
      "வலம்": 9453,
      "விவாதம்": 9454,
      "கூறியுள்ளது": 9455,
      "யூதா": 9456,
      "கடவுளின்": 9457,
      "செயல்பட்ட": 9458,
      "பெற்றுள்ளார்": 9459,
      "மாற்றத்தை": 9460,
      "புகழ்பெற்ற": 9461,
      "இரண்டும்": 9462,
      "க்காய்": 9463,
      "தேவைப்படுகிறது": 9464,
      "காணப்படுகின்றன": 9465,
      "விழிப்புண": 9466,
      "இவர்களை": 9467,
      "சித்திர": 9468,
      "வரில்": 9469,
      "சிக்கல்": 9470,
      "க்கிடையே": 9471,
      "யார்க்": 9472,
      "த்துறையின்": 9473,
      "ின்றார்": 9474,
      "விமானப்": 9475,
      "72": 9476,
      "2007": 9477,
      "செலுத்திய": 9478,
      "தலைவர்களும்": 9479,
      "மோன்": 9480,
      "தாராள": 9481,
      "அளிக்கப்படும்": 9482,
      "பொருள்கள்": 9483,
      "இன்றும்": 9484,
      "சகா": 9485,
      "ரியோ": 9486,
      "மையமாக": 9487,
      "நிகழ்த்த": 9488,
      "கூறியுள்ள": 9489,
      "ஜனாதிப": 9490,
      "உருவாகும்": 9491,
      "ொட": 9492,
      "அமைந்தது": 9493,
      "முன்னெடு": 9494,
      "வாக்குவாதம்": 9495,
      "இருவரையும்": 9496,
      "விடாமல்": 9497,
      "66": 9498,
      "தென்று": 9499,
      "எழுந்து": 9500,
      "தென்னா": 9501,
      "ர்களான": 9502,
      "பெறுவதற்கு": 9503,
      "அதிர்ச்சியை": 9504,
      "தூத்துக்கு": 9505,
      "வசம்": 9506,
      "வசிக்கும்": 9507,
      "வேண்டியதில்லை": 9508,
      "தாங்கி": 9509,
      "ப்புடன்": 9510,
      "வெளிச்ச": 9511,
      "ஜென்": 9512,
      "டேவிட்": 9513,
      "விக்கெட்டு": 9514,
      "தனியா": 9515,
      "ஒலிம்பிக்": 9516,
      "தூரம்": 9517,
      "பொருத்தமான": 9518,
      "வனும்": 9519,
      "ந்திரன்": 9520,
      "விடுமுறை": 9521,
      "வலியுறுத்திய": 9522,
      "சிக்": 9523,
      "யன்": 9524,
      "கோர்ட்": 9525,
      "இரங்க": 9526,
      "நாயகர்": 9527,
      "குடிமக்கள்": 9528,
      "ரியும்": 9529,
      "கூட்டா": 9530,
      "காரியம்": 9531,
      "பிரிட்டிஷ்": 9532,
      "வாங்கும்": 9533,
      "லியின்": 9534,
      "இதைச்": 9535,
      "வாக்குகள்": 9536,
      "ஐந்தா": 9537,
      "வோடு": 9538,
      "அணியை": 9539,
      "இஸ்ரேல்": 9540,
      "வைத்தது": 9541,
      "நகரின்": 9542,
      "உயிரின": 9543,
      "திரும்பு": 9544,
      "அறிகுறிகள்": 9545,
      "போவதில்லை": 9546,
      "கண்கள்": 9547,
      "நெட்": 9548,
      "பாபிலோ": 9549,
      "வர்த": 9550,
      "அதிலும்": 9551,
      "பயப்பட": 9552,
      "பணிகளில்": 9553,
      "வீழ்த்தி": 9554,
      "சிந்து": 9555,
      "ஞ்ச்": 9556,
      "ஜெனரல்": 9557,
      "06": 9558,
      "ந்தனர்": 9559,
      "திருமதி": 9560,
      "பாடசாலை": 9561,
      "வேதியியல்": 9562,
      "எழுதியுள்ளார்": 9563,
      "மாற்றியமை": 9564,
      "மக்களுக்கும்": 9565,
      "ஆரம்பித்து": 9566,
      "ையானது": 9567,
      "்சே": 9568,
      "பாடி": 9569,
      "மேன": 9570,
      "பாரத": 9571,
      "கவலைப்பட": 9572,
      "வேண்டுமென்ற": 9573,
      "ப்பாய்": 9574,
      "க்காகவும்": 9575,
      "முறையே": 9576,
      "முகவ": 9577,
      "ர்களிடையே": 9578,
      "கண்டறி": 9579,
      "உடனடி": 9580,
      "தீயை": 9581,
      "பறவை": 9582,
      "ஆட்டத்தில்": 9583,
      "மதா": 9584,
      "காலத்திற்கு": 9585,
      "வருவதாகவும்": 9586,
      "மார": 9587,
      "பாத்தில்": 9588,
      "வழங்கப்பட": 9589,
      "மாத்திர": 9590,
      "கிளா": 9591,
      "தீங்க": 9592,
      "உலகிலேயே": 9593,
      "கருத்தர": 9594,
      "விரைவு": 9595,
      "கொண்டதாக": 9596,
      "தெரிவித்தது": 9597,
      "தாக்குதலை": 9598,
      "மில்லாமல்": 9599,
      "ஐஸ்வர்": 9600,
      "ிறேன்": 9601,
      "நிர்வ": 9602,
      "ஒற்றுமை": 9603,
      "சேர்ம": 9604,
      "அமைதியாக": 9605,
      "அளித்தனர்": 9606,
      "பெண்களின்": 9607,
      "கர்ப்ப": 9608,
      "ாதீர்கள்": 9609,
      "வலியுறுத்தி": 9610,
      "ஊட்டச்சத்து": 9611,
      "யாக்கோபு": 9612,
      "தாலும்": 9613,
      "செய்வதை": 9614,
      "ஜ்ரிவால்": 9615,
      "ஆடை": 9616,
      "கொடிய": 9617,
      "இருதரப்பு": 9618,
      "நியம": 9619,
      "வாடகை": 9620,
      "ஹு": 9621,
      "தெலுங்கானா": 9622,
      "இடு": 9623,
      "யோபு": 9624,
      "ஒப்பிடு": 9625,
      "செய்வோம்": 9626,
      "வீழ்ச்சி": 9627,
      "அமைத்தல்": 9628,
      "தூதர": 9629,
      "விமானங்கள்": 9630,
      "மரபு": 9631,
      "பன்னா": 9632,
      "நேபாள": 9633,
      "தட்டு": 9634,
      "எந்தத்": 9635,
      "கட்சித்": 9636,
      "அழகான": 9637,
      "கலி": 9638,
      "ப்பாளர்கள்": 9639,
      "த்துறையில்": 9640,
      "கொண்டிருப்ப": 9641,
      "2008": 9642,
      "இத்தனை": 9643,
      "்கர்": 9644,
      "ate": 9645,
      "சார்பு": 9646,
      "ஃபா": 9647,
      "ஜார்": 9648,
      "வெஸ்ட்": 9649,
      "பொய்ய": 9650,
      "மதிப்புள்ள": 9651,
      "59": 9652,
      "மீத": 9653,
      "அர்ஜு": 9654,
      "நிலக்கரி": 9655,
      "ஆற": 9656,
      "தக்கா": 9657,
      "போதனை": 9658,
      "முடித்த": 9659,
      "சாகுபடி": 9660,
      "ொருவர்": 9661,
      "மருத்துவமனைகளில்": 9662,
      "ஆப்பிரிக்க": 9663,
      "நொறு": 9664,
      "ிழ": 9665,
      "02": 9666,
      "இலை": 9667,
      "ின்றேன்": 9668,
      "தானா": 9669,
      "நிர்வகி": 9670,
      "ஆதியாக": 9671,
      "அவங்க": 9672,
      "நீக்கு": 9673,
      "விளையாடு": 9674,
      "பொய": 9675,
      "கடைசியில்": 9676,
      "கூட்டி": 9677,
      "ர்தி": 9678,
      "மெது": 9679,
      "ராஜபக்": 9680,
      "நடந்துள்ளது": 9681,
      "சமாஜ்": 9682,
      "தருகிறது": 9683,
      "வலியுறுத்தினார்": 9684,
      "ய்யா": 9685,
      "ஷ்மா": 9686,
      "யோசனை": 9687,
      "மெண்ட்": 9688,
      "சசிக": 9689,
      "கொடுத்தது": 9690,
      "சம்பந்தமான": 9691,
      "ஆனந்த்": 9692,
      "ஐஸ்வர்யா": 9693,
      "திருப்ப": 9694,
      "வேண்டுகோள்": 9695,
      "திருவிழா": 9696,
      "திருப்த": 9697,
      "ஹரி": 9698,
      "வருவதற்கு": 9699,
      "எதிர்காலத்தில்": 9700,
      "கச்சா": 9701,
      "நார்": 9702,
      "உட்க": 9703,
      "உலகெ": 9704,
      "மதிப்பிலான": 9705,
      "பிள்ளைகளுக்கு": 9706,
      "செயலர்": 9707,
      "லண்டன்": 9708,
      "ஸ்வர": 9709,
[...]
